node {
  name: "lstm_1_input"
  op: "Placeholder"
  attr {
    key: "dtype"
    value {
      type: DT_FLOAT
    }
  }
  attr {
    key: "shape"
    value {
      shape {
        dim {
          size: -1
        }
        dim {
          size: 100
        }
        dim {
          size: 1000
        }
      }
    }
  }
}
node {
  name: "lstm_1/random_uniform/shape"
  op: "Const"
  attr {
    key: "dtype"
    value {
      type: DT_INT32
    }
  }
  attr {
    key: "value"
    value {
      tensor {
        dtype: DT_INT32
        tensor_shape {
          dim {
            size: 2
          }
        }
        tensor_content: "\350\003\000\000\000\002\000\000"
      }
    }
  }
}
node {
  name: "lstm_1/random_uniform/min"
  op: "Const"
  attr {
    key: "dtype"
    value {
      type: DT_FLOAT
    }
  }
  attr {
    key: "value"
    value {
      tensor {
        dtype: DT_FLOAT
        tensor_shape {
        }
        float_val: -0.0629940778017
      }
    }
  }
}
node {
  name: "lstm_1/random_uniform/max"
  op: "Const"
  attr {
    key: "dtype"
    value {
      type: DT_FLOAT
    }
  }
  attr {
    key: "value"
    value {
      tensor {
        dtype: DT_FLOAT
        tensor_shape {
        }
        float_val: 0.0629940778017
      }
    }
  }
}
node {
  name: "lstm_1/random_uniform/RandomUniform"
  op: "RandomUniform"
  input: "lstm_1/random_uniform/shape"
  attr {
    key: "T"
    value {
      type: DT_INT32
    }
  }
  attr {
    key: "dtype"
    value {
      type: DT_FLOAT
    }
  }
  attr {
    key: "seed"
    value {
      i: 87654321
    }
  }
  attr {
    key: "seed2"
    value {
      i: 8931120
    }
  }
}
node {
  name: "lstm_1/random_uniform/sub"
  op: "Sub"
  input: "lstm_1/random_uniform/max"
  input: "lstm_1/random_uniform/min"
  attr {
    key: "T"
    value {
      type: DT_FLOAT
    }
  }
}
node {
  name: "lstm_1/random_uniform/mul"
  op: "Mul"
  input: "lstm_1/random_uniform/RandomUniform"
  input: "lstm_1/random_uniform/sub"
  attr {
    key: "T"
    value {
      type: DT_FLOAT
    }
  }
}
node {
  name: "lstm_1/random_uniform"
  op: "Add"
  input: "lstm_1/random_uniform/mul"
  input: "lstm_1/random_uniform/min"
  attr {
    key: "T"
    value {
      type: DT_FLOAT
    }
  }
}
node {
  name: "lstm_1/kernel"
  op: "VariableV2"
  attr {
    key: "container"
    value {
      s: ""
    }
  }
  attr {
    key: "dtype"
    value {
      type: DT_FLOAT
    }
  }
  attr {
    key: "shape"
    value {
      shape {
        dim {
          size: 1000
        }
        dim {
          size: 512
        }
      }
    }
  }
  attr {
    key: "shared_name"
    value {
      s: ""
    }
  }
}
node {
  name: "lstm_1/kernel/Assign"
  op: "Assign"
  input: "lstm_1/kernel"
  input: "lstm_1/random_uniform"
  attr {
    key: "T"
    value {
      type: DT_FLOAT
    }
  }
  attr {
    key: "_class"
    value {
      list {
        s: "loc:@lstm_1/kernel"
      }
    }
  }
  attr {
    key: "use_locking"
    value {
      b: true
    }
  }
  attr {
    key: "validate_shape"
    value {
      b: true
    }
  }
}
node {
  name: "lstm_1/kernel/read"
  op: "Identity"
  input: "lstm_1/kernel"
  attr {
    key: "T"
    value {
      type: DT_FLOAT
    }
  }
  attr {
    key: "_class"
    value {
      list {
        s: "loc:@lstm_1/kernel"
      }
    }
  }
}
node {
  name: "lstm_1/recurrent_kernel/initial_value"
  op: "Const"
  attr {
    key: "dtype"
    value {
      type: DT_FLOAT
    }
  }
  attr {
    key: "value"
    value {
      tensor {
        dtype: DT_FLOAT
        tensor_shape {
          dim {
            size: 128
          }
          dim {
            size: 512
          }
        }
        tensor_content: "\324(\250=\374\207\034=Z\203\307<\2358\016\275\242\204\201=\206w\203<\033\236o\274?Vd\274+\203\037<\234\265\026=\355\220\341<\026)\316<\273/?<\210\006%\272\214\212\313\274\236\002`:\315\356\222=\270\376\236=\353k\014=\241:-\274\251\347(\274\340R%<\225\273a\274\222\363\224\274\333^\254\2754\374\026\273{\022\033\275W\276\221=\353\334\252\273\366\027\240<\252\222\r<\005i\211\274l\\\226=?\362\257<\262\343\267;#\232\230=\330\307\030=l\211\257\274\322n\245<v)\322=a\2012=\001\236f\275\016\365\327\274W^{\274\364\200}\275$\275%=\321\240\013\275\343\357\006\274u\037\223\273bI\006\274\245FZ=~)\200=\230\270\247;\224l\013\273\2729\026=\367\014\217<\037\264\276\275\n\033r=X\257\347\274\224\370\244<\246\rk\275\337.\227\274\355\226\216=\324 ~=\352\026\307\274\007\365\207=\003\004+<}\"\024\275M\246\230\274.\346\332<6\031&=\250Z\265\275\244\351\006=\330\232\223=\026\341K=\346\353\r=\004\336\267\274\320@4\274C\347V\275\212O\013<4\002\"\275\025\210\244=\306\206\276<m)J\274\375\376\214:W\350\253\274\223\222\271=\263\2606<,\211\232=\025\362\221\274\340MD=3|\255=\207\302\305<\323\345\351\274\373\364r;\243\371\034\275)\022o<\t\255~=\t\031;\274\336\\\247=\026\223\215<F\035\205\275p15\273\271f\223<\220\274\001\274\305\235\n\275Yz\242\275\242\273H\275\315o$\274\roR\272\033\327\276\275\354^y\275\230\366\242\2744\024g\274\027,\007\275\325y\020\276cc\035=\234,~\274%y\307\275\262\'\246;\2055\316<4\232\340<<\314\242=6\241\225<g\336T=\022\313\024\275\000Dh=\2247\261\274\t\036q<\373/\n\274f;\214\275\023d!\273\005\306\243\274\333\031c\275{\200\257<\342@\350<.\367y\275\253\311\316<N\316\255=\364\325P<\362a\005\275\327\210[\275\021Y\305=8\213\374<\243\375E=\273\351\316\274\336\311\n\274\363\024^\2751:}=\013\363\264\274\3210\201;t\272\017\275A\031\307\274\264S\345\2743p\224\274\262\274\356<\332\017\332\274\3674\304=\3036\373\274]\337+\275\2665\213=o\010\237\274\0102\264<P\342\211<4\216\355;\241\345\375<\241E\024=o\t,=!\001Y=\342\227\024\274\032\202\002\274!\037\032\275\260+\302\274 \277\263\274\023\334*\274\330\254[=H\360\n\275\025\244A=\336M<=>\342\332:\261\274\204\273\227BU<-\325F<\355\035\267\275\335\335v<\342B\254\274\214\206&=2&\000<Uy\241\273m\306\r=\260Us<\335\275\246\274%MW<\3763U\275\025\304R;X\2720\274\314\363\374\274\2358A\273\362H\337<zL\357=\232\177\253=Rl\254<\310\223\253\275\246\256f\274{\270?<\032\362\253\275C\277\025\275\363S\330\274\035\3041=\351\023\000=K\235\224\274\343\010_=\201\023$=\275\206\315<o\303s=3\315W\275H\220\224<x\0079=)\360\371\272\206\377\257<\226\312z=\022\267\322;G\240S\275jQ)\275\004\344\317\273TPj=4\254\226\275\225\217\246\273\332b\242=\016\034\244;v\260~\275\315u\226<E\370\266\274\263\257\323\274\206$\000=sh|<\274\366\311<\033#1\275\345\006\024=e\n\202=m\002\016\275~\3374\274\366}n\275&\354\255\274\203\275\n\275\026j\324;\347\362\205=(\276\035=\033Ny=Z\302\010\275}Gm<\373ku=\274/d=\263\025\017\275*\306|<\311\312\201\275\215\270\207=\350\036E<\377\201\215\274\023`\234\274G\022\346\274Y\304c\273\334\221E=\275\342L=!5\205=\352\200X=A\034\001<u!\317<\232,\016=\371\247\027=\nSL\275\320k\205=\317`\304=`\203s\273\237C\357\273\030\252\201\275\0260\034\274\215\203\010=\325\277z;`#e\274c!W\275-ca=\255\006E\275\021\321T\273\233\240\021\275Q\244Y=\352\3149;I\026\017=x\263|<g\022\020=\025\201\311\274\213\351\032<F\255\303\273[\345\312<\321n/\274\325$4<\014\357\027;\354\350\225=j\013\306=C\030d\273\200\275\221=\033\247\272;\241\345G<\326\262\253=0\323\252\273\267\241k\275\333\374\232\273\307\234C=\010a-\274A\266\203\275Q\2743\275\224\233,<\263\311\353<\271\270\213\275O\352\233\272\312\244T\275.\341[\275\216\034T=\312\307L\275\301\337L<V\332\315\274\010sM\274!\036\320<\0000w=\230a\255<5\355=\275\304>W\275\224\301\210=\310\026~;\200\021\357\274\320\205U=\022Jv\274\314\227U=\263!\310;\002\177(=?\334\333\273\377\277\307<6RY<\330ME=\267GF=\302\356\363\274u\017\206\273\272$\255=\255Fl=\362P\327\274^\024\367<\255\312J\275\327\223\035\273\343\323\032<\275<G<\'\034\370\274\305\240\204\275^\223O=\305\375\357<=L\006\275\222R\251\274\211!\020\275\255\262\025<wC\346;@n\357\274\203\001M\275\010\225!\274\351\2740;^\347\t=\032&\020=\031@\274;\202ZB=\243_\204\274&\213\257\274\252]D\274\224k\252;&\007\247\274\256\337\352<}\343^<7}5=\316\311\230=\'\305\203\275\260\370\305<r\362\333=\016\300T\274,\r\213\275hke\275\236M\201\275\"\342i=\215\210\227\273)\327T\275p\315\316\274\361\031\243\274\374\005\204\275I9M<\210V\205=]\300\214=\210\200\006\275k\005\014\275\210/\303\274PzA\275\370}\030\275\254%C\275\0363\027\275u\035\250=y/e=X\265\203\274cP\344\273\201R\340<JqL\273\225\336<\275\000\270\227<z6~=F\255\013=\254\312\261=g\276\007=7\017\205\275\036\230\004=I\204\020=\325]\253\274\273I\364;\240\340.\272\376O\005\275_-\316\2747\266\320\272E\034\222=\000\234Z=\233/s\274.\206\305<rA\240=a\276p\274\034\027\"\275BA\273=\025\222\202\274\240\331=\274DO\360:\304\257\300\274\256\243\232\2741\313A\275\332!;=\"\313:\275\377\273&\274\262g%\274X\230\205<si\336<\356Ek\274V\274\032\275K\337-<\325\365\010\275\014\032\215\2759\261\027=\026\312|=\300\254\017<\3671\024=.\237\271<\270\'\010\275`J\003\275h\022\026\2744\220K=\030P\361:\344\363S\274\214\003M=\204\354\234<i\320\024=\033p\315\275}\206\345\273\241\244\346=\342\240Q=\3726f\2757\356\275\275\324\323\223<u\233\234<\3756\204\275\235M\024=\361A\203\274t\252$\275&\327\246\275\006gE=\3342\313:\307\302\320\274v\311\361\274\302\016\260\275Y\366\222<\252%\022\275\244\017\213\274\2050\251\274\362\007\227;\321\274\227:j)\241\275\227\224\213\275\234\262\272\275\351\301\326\274\000\374\317\2758\331\311\274\323\032\343\274et\322\273\366U\202\275\315\315\221<\010\267\322\272c\256\226\274Noc\275\031\203\237\2751S]\275\222\216\013=\357\306\273\275\306\273j=\244\331\331\274u\316\347\273\027\317\324=\224z\200\274\334v\260=4\361\300\274\302\037i\275|E?=\366\001\207<\266\217\214=\353Q\267=,s\200\275\021\t7:\003\244O\274\373\241\275<\336\007\360\274\r\236\247=\261N\'=_\320\004\275\347\314\273<AG\231;\300\366\350<\271O\277;\270\013\220=\'\234\313\274\225\247T\275P\305\247=v\003-\275T{\234\274\357\266 <\276\237\203<i\001\006<\317\355\247\274\021L\332;\336\337\361<\335\314\033<9\366\024=u#\000=\375\315\373\273~\247\240\275\306\203\242<\t1^\275;gU\274\267\323\253;\'\362\202=JVp\275\230\351p=pe\255<\375Pt=Ye\225\275\335!\007:@H\034;x\223\332\273\250-\036\275\013\201@=\261\0042;\220_\\=\2756[<u\\.=uCu\274\037y\252<\326\005\222;\262\261\363\274P^\222\274VxW\275\032\242;=_\031\267<n\004\203\274\305\r\224\273o\325\221<\241\304\036\275w\302)\275~\327,\275\240T6<\327\315\243=\323\250\250\274\037\240\\\274dO\360\274\357J\016=\311\205\r<\236i3\2756\250:=\372\"\223\275\316\337\345<\333\017\242<:\306\202\275f}R\275\001\223.\273\374\375\344\274\016*\241=\332r\233=\242\337R\274\227\351\247:\t\303\251<\r>r\275\357\324\325=k\274\000=+\241I<\350i\212\274\'Q\344<e\017\006=\237\376\026=Fi\'=w\217[;{\037\264<\216\323\202\275k=\023\275\262T\255\274\302\212\221;8\035\266<\017\355_\275v=\"=27P=\023jJ\2752PE<\377\357\242=>\000\315<\33045=\207\313\270<UW9=o\352\013<jo1\274\'\014\r<\346\316&\275\202g\024=H\252\2209\303c\016\274f\250g\275\3764i\275z\216\223\274\306\240\025>8\264\320\274<\306V\273\0000\221;\020\207\032=#\250[\274%\037\035\274=\311\363<\250D\271\275\'\323\212\274+\357{<]\005\236\273A\303e<\277\212H\274iPm=\024\302A\274()\267=\345=\333;\035\034_;[\317\035\274u\354\203<\230\352\334\273@T\206=\374\221w=jz\213\275]@^<:\t\206\275\316\t\\<\375B\377\275NSb\2742\356b\275\356\031\233;\373\273\030=\272c.=C\034\024<\203%#\274t\032\035\275\216\206\251;o\232\362\274\372\211t\275D\033\353<\211W\256\273p\210m<\266\\\257\274\277\256w\274\264Mk=\326|\271<\317jn<\367\314,=\302\302N\275Ay\211\275\276\346\243\274\302\224Q\275\357l\331<\341\027\233;\355F\216<\334\244E=\224\342\272\274\"P\017=\364\330\007\275\242\002m\275\026|.\275u\371\267\273\363p\274;\'\277\021=\322\310\236\275\312\252\220=oa\272\274\032\'\224\275\342W\230<]jB\275\214S\230\275\026,\024\275W,\346;\332\363\n=\306x,<\010\233\343:\232\002\316\2748~\210\274*,F\275\325\356\006\275\207\256j\275o_\221=\302\362\\<wt\306\274\323\341\305\275\311\177\010\275-\375\233\274\257\365\357\273\311>5\275p\372(\275\rW\264:\356\016\034=\374@\204;\377\255\254\274\3141d\275\002\223\246=\201\337%\275\330E\231=\270\300\232<j?p\274\346\261\017\276cu\313=\224\236x\275wr\216\273\177\375\320\273$\300\311<rV\267\275\3730\000\275R\321\204=?\333K\275\354\370S=\212j\320;\243\250u\275qV\373\274\006S\224\275\313gC\275ipH=Xs9=L_\316<\300\246e< \241k\275\246B\037\275\343O\\\275\037i\017<\231\375\373=\024\0108\275\352\255\\\275\213S\370\274\032F\237\274H\214\027<X\337!<\2548\005<u\361\272\275\261~ =67\221<\306\200\246\275p\210\"<\n\002\206\274\262q\236=A\273\350\274\363\230\"\275\331K\2167\2664/\275\374J\351\274x\212j\275)\037Y=\021\254o=|\243\200=\177Z\346\274\342e\311\274\177.\324\274o)6<\031\375\300;\364R\344\272\337\356{=#\250,=w\375\336:\033u\242\275\203[\212<Z5\360\273\206\337i\275\216\305\247\273\332\\o:\202w\223=\017\226\250<w\306\007\275\325\245\237\275g\351\267<\035\203h=\000\010C\274\251\301\"<\373\327\235\275\206\001\374\274n\370\365\275\326\312u\275\003&\353<\333\301\247\275H\307\014=C/\220<j\033\347<\374L\323<}m\252\275#\212S=* \022=\377y8\275\241R\367\274K7\351\273\014\tW\274\204R%\275+\376\217\274jy\210\275j\257\210=\372T+=\221\257\323\275W\007\230\274\225O\336<}\034\267\273n\320\200=\237\"\247<\347\005|=7\025\361:\327\347\031=\207\217\323<MQ,=\026 \207=FB\257<\206\312*\275\036+9\2758\271x\274`\221)\275\r!\235\275\372A\222\275.!\345\274e\301v<\337U\033\275\355YP=\333\354Y=*\025\026>x\330\206\275\265zc\274\274o\270\275\022\3069\275g\005$\275\321\254\202\274\256L\265\273{\332L\275z\244T\275B3\335<\206:M\275;A>\275[\334G\275\325\250\350\274\235my\273\214iZ=>\002\310<9\202^\274\307\210\353\273\304\0277=\323M\023\275\334\014\371<\346\336\226\274g\363f\2759\330\023\275L\303\225\274\353\005,<>\321\325<P\231\223\275Wz\240<\313+c:\267\3221<\272Ra<9\356\300\273\2758\201\275\330\201\275<o\247\307\273\203\330\013=\004s7=\260\246h<\277\037l<U\303=\275\037!J=\252)=\275\315\252\312\274\315j\267\275\331\205\362<C\003s=\014\r\003\274\342{\220=\3134R:-\003Q=\215\350\337\275\266\222\000\275a\021\255<\242\002\005=0\243\322\273dw\277\274a?_=:\271\223\275\257\270\007=\357\017]=\254\347&\275*\305\304\273\265(\013\275\035\201\344\274pRO\2744n\n9?\324\221\2734m\271\273\311\022o\274\306=\225=IT\363\274\242\360g\275\223\020c\275\252\026\\\275\200\223\242\273zD\010\275\232A1=\033j\235\274\377n\n\275\226s?=\241\\L<\263\227g=i\273\261\275\264O\025=\375\213)=\334_\220=\376m\301;\367\274a\275\273\261\001\274\367M\264<\333\345\220\274u\354\331\274C\241\230\2705\350\341\274\230m\\<\003Z1<\367j\003=\2479d<\373N\350<\265^\220;\235\232\203\274\n\261%<\354\377\001<i\365:\275b{\277\275\325\361x\274\311\326\325<\302\266!\275\264\2168\274,fs\275\036;\004\276\354\300\234=\242\342^\275%\005\314\273\333rO\274)\010\354<\307\220E\275\337\272\032=\002\334\237\274#1\201<\030\373\007\274\200z\243\274mY\021\274\027.\264<L\206o\274\351\360\016<\306\355C=w\330\266\275\362 \026=_-}\275.\313}\275\341\002\267<yn\206=\227\304\215:\277\334\262\275\243\224\\<v\314\305\274eL[=\004\313\177\275\323\225\205\274\271/\340\273\t\303H=\361\331\262\273\207\317S=e\013\204\273\223l\024=\247E\n\275\312\317\356<Z\033\354\274\202\217\216\275=\036C;\334\333\340=\001\237\000\275\177\347 \274!\374\204\275\245\034@\275^\276v\275\313\016\305;\231\221\212:\3720\225<KW\017\275\250\2420\275`\211\267<5\352\r\275\n\215:=a\346Q\275\351id\274\333\370\320<[\223)<h\320\274<\205\251\326\274\201\352\210\274-Uj\274\340/\240<\324\274:\275)\254M\274\345\341\345<\202\200\005=\261\2362\275\200\2271\274\210\200\212\274\230\0344\274\206\300A<\240\013G\275\264\tu=Z\370\211\274WY\261\273\364x\020\273\364i\003<A\346\326=\272+ =}nb=\034\261h\275\221Jh\275\203\255\222<~km\274\247N\354\273\003\260R\275\266BY=\001\267\337\274do\323=\246\250\311:\206\021<\275\000\261\201=g\273\013\274Tb\325\274\277\3648\275\221\n\356\274&\030z<i\246\n=\336\t;\275\354F \275\345\025\234<\024\375M=Qt\226<tm\326\274\027E\225\275\"\233Z\275\202\237\014\275\341\303\t=Z\210\343\274\2079\002>\020\004\303;\306\212\375\275ut\311:\033\345&=\255\323j=\303\346\204:\031\233Z\27577G=\216\230\257=\"\003\306\272\251m\002\275@\374\314\274\037sC\275\353;\204<\352\275P=\266\3434\273\034\363\275<\227\004s=Rf\372<}\324\343<\226\013\250<\230\n\201\274\241K\272<n\372\367=\335&\232=\201`\022\274\017\311L=\254\207\317\273\262?G<ub\333\273\272(\225=\306\\f<Ug\204\275i\252\020=[|\244\275\t\326b=\036\023M=\356;^\275\355\t\302<\3449\371=$\026+\275\205\204~\275`5*=\231\205\254\274\356\377\177\275\325\213$\274(=\207<\346a\202\274\037\327\204=\225$\226\275\222\371c=8\0307\275-\375\020\275\221\007t=z\364\363\274i\243V\275\256d\035<\247v~;\206\334\355\274\317\202\016\275\362\277\254<e\316\244<2\215j=HO\325<&\276\353=\256\242\204=\270\2070\275Lz+\275\016\361`\274\322e\312\274A\356\021=\201\260\304;E\267M\274\311s\243<\205O\344:\327\033(=\301\3502\272\373\271U\275z\300E=\233mU;d\013S\275h\351J=@\007\374<\'Z\260<}\250\212\275\233\265\237\275\201\202]\273\3631\000\275R\314\232<\031t\343\2745\355\274<i\210\004=\245\304U<\037yA\274uq\301<\215v\032=}C5<\3227\310<\360Oo=\025\357\271<\331%\226=\230\201j\275\357C\031=\235x\202\274\317\225;\275\023>\275<\314\345\351\274 \360\365::\302\332\274\313;_\274\336e\234\275Zh\000<Md\254\274qOb\275\241[H\274\020\214\256\271\001\252\306<\250f\024\274\334\036\003=\014\346\026=?\006:=\240r\330<\036`\233\274\367U?\275\312\300G\275P\304d\274o\013\206\275j\362\270<.H\\;A\341j\274\200\355`\2726\300J=\356\324\021<6:\320\274\243\220\033;q\311\002=\257\361\242<\203\266\227\274\334\342\250\275~4\275<\346e\007\275\300z=\274\320\201;=Q\334!=\203B\200\275\301\324\000\2744\002\203\275\033\364s=\326\200%\275 \216v=\344\205\272<ht\"\274\304\361e<\266\244\235\2752\221p\275+g\266\271\354F\n<&\200\207\274\260\230\\;\213G5=\237\007\321<\226\265\224\275~\200\026\274\'\364,=\t\'\236<?\241E=\r\257\342<\0368B\275\260\353\000\275\364\345\007<\252W\227\274\223K\n=\314k\310=\350\344t<\365\215k\274a\226?<M]\201\275\265J$=%\0268=\214\240\"=\264\362B\2740)\002\275-\206\213=,\236\207=Om\353<\212\007\222\275\353x6\275\032\005G\275\021\205(=\t\016\002\274?\002\313\2754\215\327\274(\3421=\366\330\244\275\274P\312\274\0161\216\275\017\221\342\275v\'\331\275\224uG\274_\241}<]6W=\245\211Y\273\023\321\343;a\021\227<\250\034\030=wn \275L|\006\275~>6\274\022P\231=\357;d\273\025\3052<\316\347\275<\300\234\006\275\314\350\344=\023\263\216=Q\327\r=!\237\206\275J\324}\275\322a^\275\016\261-\275_Y\243\274/\202\320<\350M\010\274-\354/<\200\332\273\274\245\321~\274\212b\236=o\334\207\274\314Ye\275\r\030\225=\205\203J\275<\267\221=\013\254;\275\205\000\305<\026\360\325\274\032Q\213\274q\002\314;\005!u<\013\334\307\275\036\346\005\275\342\010j=\242GD\275\017\321\033=\276\212\210\274\375\234\203<*\001\276=\037\0169\273\017\270\343\274\006H\310<\231A\006=\016\271\\=\365\\\234\275\333\344j=\250]\262\273\336z;\275\325\323\322<\206\000\301<\240\236\024=\213\323\234=\2761\366;1\277\205\274\377\225;\273\367\256\032\275\256H\305<\214\206j\275\252\033\233=\331\253w\275$\226\024=[\214\257\274{1\254=\334-\221<\234F\217=\211\177\273:i\2229\272\031o\247\275W;\230<\313\266\267<_R\335;\007\317\230\274a,\337<\245\023\206=\030 \214\273\232\253-=f\037\013\275\347\372\212\274O\272\251\274\327B\322\275\014\201\263=MN\214\273\350\356\356<\333\354 =,\354\014=6r =\256\251\261<\323\336#\273b\252\202\275 (g=JF8<G!s\275:\374\010=z\373\253\275\237\"\034\275o\224%=v\352\226\275\016\360o\275:\211\341<\371Pn\275\214\347G<$\314l\275_\276e\275\347\307-=\336\332\370\274\362s\217;\211\200\273\275{\355V=\206\034.\2741\360\016\273\247P\213\275\2171\375<\276\027\n\275\342\"+\275`\351\271<\231MY\274\274T\233<\n\036.;\251y\322<\243\035{=\3233\027=\242\031/<\001\367\257=\252\367\177<B/\211=\233b\267\275\266x\343=\322\275d\274\227W\226\275\023L\r\275M\tm=q\025\367<fv\311\274\331\242W\274\226\372\204\275g\326f=\3749\251\275\005(\035\275\363\334d\273j\247y<\357\003 \2741\325\350\274\002\247\210\274\320\334\033\275e\306$<\177?\237<\217\212\251<\353\263\271<\377\324\017\275\016\215\326\274\2715\016=\267\323`=6\330\010\274\320\204`\275\314j\014\275.y\267=\275\3006\274d\250N< o\271;\241\276\000\275\225\2265\274\353\261\253=\367\362\375;\257\362\027\274\357bD\275\001,-<huA;{\332j\274=y\206\274\000W\316<\374\252\205=\016;_\275\027\205-\274I\204\235:0w\240\275/B\005\275\2679M=\275\035\t\275\362\303\220\274\211\217d<@\323!\274\227\211\324;S\201\200=\304\333\306\275\212\365\313=\364\234\336\274\2101A\275Lo/=\272/\026=#s\337<\031A^\275\377\031\030\273\316\310?<\350\247\246=H\334\2038\rK\211\273\353\034\356<aK}:oGU\274\273\3364\275X\304\330;\364\212@<\272Q}\275\245c\244\274\336\032\260\275\236t$\272\023\250\265\275\375nF<\3020A\275\332^\004\275%g7\275\213\347\230\274U\006\034=\214I6;\223=\341;\247\031(\274\273r\270\274\311\315Z\275POb\275\260\361\214\274\266\326/\275\236\2361\274E\243l<\205\231\223\274\322\200!\274\000y\341<\032\203\007\274c9\031=\341\014\250<\315\261\217\274\273t\325;\021\260\207\273\255J\212\275q++=\220\327\241<\345r\321\273\030n\214;R\312\033\274@\367\020=TX\263\274\256\366\021\275\032\377\346<\305\264\250=\327\016A\275\214q\006=\261\254\022\274\262`\243\274\324K;\274N\334p<d\321\275=DJ%\275\341Zm\274\004\247\272\274B\347#=S\222.\274\0314\227\274\274\010\251<\215\362M=g\340}<\360\307*;\300\343x\274\030\177\214\273\205i\216<bj\271\274B\372z=\3326\360;^<\203<|\003W\275\013w\025<\224\231\000=ax\013\275\362\3217=}\257F\275\273\312\237\275\001\307\t=\255\035S\274o\321<=\243\222\010=\225\261\313\274 x\r=\3436\322<\326\232\255=\254\207\t;\212\364&\275TUL\274r\261E\275\207\0360=L\031\222\274.\233\034\275\266\301\256<JE\024=\210\247\016\274\203!n=\263u\370\274;\365o:0T\341\275\25724=\2425\266=\234T\227;%g\306\274\034_`=\013K\313=a89\275LK.\275\351\342u<\010\234\000\274\026)\t\275\231\311\226\274\035u\202\275\302i\017\275\354\3152\275o\316\010\274\354\301\256<[%L=N\256\366\275\031\325\032\274\335i\333\274\215;\256<\340\005\324<\010\317\263\275\0326\234\273\361\250[=\013I\205\275\332,N\275|{\375\274\021P\244\275B\210\266;Ow\263\274\0304\277<\347\362\324\273[\343\345\274\215\307\317=\257\225b;\335\020J\275\275\346B\275\224\336\240\2756\331(\275!o`\275E\212\312=^c,=\033\027\213=l\361\233=\310k\226=\235\337\217\275\262\360/<H(b<\220\t\225;FXE=\204B\221\274\327\317\344\274\316\035c=\210\325\021\275\307\241\210<.\364\226\274\225 \201<\006>\240\274T\245&:=\335\217=\354)J=P\037\302<~o\037\274g\213\225<>\357\001<\24184\275\203Y\230=\3434\253\274\207V>\274\32254=H\021\316<\360_\236\275\224\237\001\275\334u\240=fA\270\275\340[=\273\010X\274\274\255a\255=\376~\262\275\260\355\010;\027\024\216\275\207\"\035=O\177\214\2751:\274<\177$\302\274g\267\334\274\010\236\347;\177\332};\272\314\207\274Q\211\026\272\236~:=0\261v\274*%?\275\177\027e=\216\262\204\274\301\032\265<&X\220=\367[\201\274\305\213\265\274\341\000\311<\252 f\274\255\013\010=:\202@\275\363G\205\275\221.L=\357\311\373\273\214\207G<!\254\303\275zL\220\271j\005\005=\010I(<\351\001\305\274\277\327\242\275\370??=\340|F=\004\355\205<a\354\246\275A~\314\274\363\213\256\275a[\322\274\216\270\224=\232\314_=\204\0217< \022\342\274\005\274\255\274\206\217\031\275E\037\236<E\3728\275\324\237\"<\211\366\212=\356\366\021=\205\300`\275\030\247\263\274\010\360\376\2730\0177\272$\332\352<\025\274\313\274W\372\365\274\325B\201\274\274\226\220<[\"\177\274\236\315\202\275LY\207:\257\333<=A\'c=\036 \224\274Q\226\032=\023\317\006\275\210)\350<\336\343\223\273L\355\200\275\235*\242\275\241\347\233\274$\312\007\275\345\237\304\275\007\272\207=B\324h\274\260s\314:\230K\361\275\270\271\263\274Z\266\223\275\215\021\272\275\014\354\335<\375\264\230<|\265.=C\3313\275c\344\342;\315\326\304\275\301\265\004<\253\251\325;\333\001S\275\364U\260\274\274\"\220<\356g-\275\374`\252\275\037\276\240=4\324\013=\242\367\236<\035\337\227=\352\376\257<\270\321\337<d\343\356<\250\250\343<H>\266\274\000]\242\274j\376 \275\305K\337;\\\351D\275\245\241\\=\2317\335\271\324,\036\275\013yp<L\316\253<\374\257\341\275\035\364\222=\202\322R=\366\234\022\275\307h\245<\274v\263\275J_\210=d_\214<\000}\270\275\265\207\224\274;W\200\273\037n\033;\022\3453=q\224 \275\001\262\022=\025\317\331<(\207\312;/\267\315\272]\302\224;\005\243\004=g-\210\274\252\360\220<\363>\276<[\275\002\275\013\367\211\275\202-\254\272\224\025\232<\376\301\203=[\202\350\275\376Ph\275\261\266\016\275N\216\367\274f\224-=\360^\260\275\310jX\275\355\t\013\274e\211]:\274\341\034=\271\254\026=\353F+\275\000\247c\275%N\337;Y\000\237\2751\363\252\274\233\337S=\334<A;\250\234h\274I\366\242\274\301\344+\273\377\300\253\273\246u\202;:\274\213=\234\0250<\355s\273\275P\360\007=m\310\221=A\n\220=\034}\032=\236\257\237<\250\343\235=;\226\274<L\225j=}\227\204;\027\263\231\274\031)\302:\327\320\227<\t-*\275\0169d=\n-\032\275gs\377\274I\316u\275u\035\006<#+\020=\371 \222<\377 \017=\237\016>\274\2222\304\275\234\025\204<\315\343\322<\207\347\000\275`\007\265\275\230o^=W\351i\274\305\n\264\274N\260\364<S\371d\275N\361\232\275Xg\237<.\306\321<>\302\'<\013\360\202<\243\323\363;m\255\325\275\324\013\201\275\006\236\022=\221o\366\274\321p\025\274\257\265\262;5$\034<\205\002\027\275\312\277^<V`g=\370\316\245\2754\227\306<_q+;\203\004\262\275\316\374\021\275\241H\236\273\317\t4=\226\001\016\275Xy\216\274r\327\307<\217H\247\274\370\262\245;\323\030\371<\226\266J\275w1H\272\020\217<=+\335t9\252\352\224=y\351\301=\233\311\223\274\2158a\274}\274\320<\177\240\027=\266\241;=\001n\000\275\n\372Y\275\263\031\007\274\\&\355<\026\'f\274.\025a<.\010\270=\237w~;\036a\234=si\213\275\225iu=\247\311\223\274A6d=\031\324D\275\334\357\257</\337\341;0\257\203\275\206\306\212\274!N\320\274\221B\020\273\233=\235\275\233\301Q<\247\276i<\200/u=\237\272&=\226\341\216<\230\303\310<SO\227=\331\353\034\275\216\255\021\275o6K=V\212\263\274\225R\\\273\351o0\275?\244\367\274\030\220G\274\211\324M<\275\237\240\2746\257t<\377\232\361<B\277%\275&\257\344;\365\261\275\275E\200\274<\274\025\270:\252i\215=\364$\314<\246J:\275\2036\3448\220\355\213\274\037%x\274\202M\003\275\213\256\001:\342\324\213\274\\\213\244\275\337\003\315<,\261\223<\016\363\216;\244\323\334\274\305D\002\275\235h\210\275\030I\250\274>U\000=\0270\342<n\033\303\274\212\260\003=\030\260>\275j\214J\275\306\363\334\273!\336\211=\262\330D=R\225\355\274K\365\347<Pz\r\274^i\031\275&\265J=\342/\245<\321\020\355<Ko\273;`\3371<\365a\277<\322\264\260<$j\213<I\300\212\271\324\030\220\274\330\310\313;F\251\241;\372\225\007\273\222I\007\275&\016\t>\206\334\243=w;%\274\274d`\275!W\025\273\307DD=[\224\003<\207\352\265\275+\234\254;\375\026\354\274L6\207;\007\347\264\275\017\326\223\275\356\rb\275\355\213\031\274\344\026P:j#\236\275p\312\260\274\006\010\216\274\344\241\271<w\2428<\313c\221\273\230S\233\274\2763\026=>\"#\274\355\014+\275\330\2415\275\016=\266\275\263\002F\275\342a+=zWO\274}\360\245<\000\311\324\274ul\014\274\276\033\004=\327p!\275g\363\254<\221wf\273\211\036p=\255\333\257=\255\200Q\275\204`!=\311\020\333<b\357\006\275\315e\300\274\335\276D\274\305%|<\354&\276=\200\264r=\374\307\323<\203=\2349\212y\255;\027(\255\273\257\032\"=!\305(=h\001\217\275\023R\361;\251I\234\274\305\320\237<\312S\217;_9P=6\025\016=K{\257\274\267RL=\347(\022=\300\277\245\274M\272\250\273\"\001\033<!A\000=\014\303\034=!\250Y\275\271\364\257<\362\276\031=\030\366\034\275\251\013<\272:[}\275\354\037\330<\265\333S\275\374\364\214==3+\275X\264#\274\245S\223<\203\375K=\362\376?<\301\267Q\273\325t\006=P\217\023\275m\362)\275*\325\221\275\215\206`=$\202\322<\222\222\243=)\300\265\274\272ai\273\002`\220\275\213\314\363\270\224\225\206\273\2678\367<VG\253;\217\346\220;\367E\336<\255\n#;\206\202\032\275\274\355y<\357\035\240:5Y\355:.\264@<\272%)<\000\237\222\274\000\220\010\275\022\252Y\272\325\245\231=`\302\217\274\360\341\036<\335\242\204\274\347\317\226=n\224\034\275\362[\007\275\010\276c\275\254\352n=\346\372x\274\227o\253;\373\220\034\275L\306\237\274\201qn=J\250N\274\232\3262\275\331C@\275q\312 <{6\200=}\246\201\274\343<$\275\221\345d=u\235^\273Kg\033=\023\025m\274\275\2521\273\377\204\245<u\222o\274;\332S=P0\241<\274\202y\275\r\205B=k\231\224\275\224\212\317<\307\250\331;\244\2051=M\317\022\274\n\304x\273\020U(\275\330k\010=\203*\221\274\211\350\021=Zn\006;\031\270L==b\307\274\262#\030\275&<\313:N\265\274<\014\214\006>C\2046=\034\214\224=\005\235Y\275\276\241\314\274\375\302\014\276\202=7\273|NO=k~{\275\334\247.\274\333\006Y<\220=\034=H\010\031\274\367%\034;;h\024\275\275(\3328\325\010\213\274%\003\311\274\3128\305<L\246Y=\231\271k=\205\330=\273\262\020O\275pL_=\270\305\363\274#\221/<\205\215L;\264\300o\275\257\272\375<F\344\273=zB\272=6\377\201<b\323g\274e\207\253\273Y*\032\275k\334\243<Z\210\256=\'\023#\275J\263\026\2708N\263\274X \233\273\262\023\013\273\336\001E\275$,\240<\257\023m=~\035j\275\355\333\324\274\377\364g\275Y.\200\272\325\rr\273\376jo\275\351\005\230=\316X\323\274\t\301\223\275\242\3330\275\314\302\234<?0\371\274\342\305B=\207\037]=\030;\374;\212\204<=\247Q&=*\023\310\274\360o{=ow(\273\334*|=\022\340\361\2744\217\213=\036t\025>\036\271\241\274\242\374\251\271\264\267\377\273J\210\341\274\262\256\224\2752\215\203=\261l*=j\037Q=\375_w=t\3065<\345\344\305\275\031X\351<VF\033\274N\240\241\274\245\2144=\341\251\371<\2467\226\274,\214<=@\356\223\2743\236s\274\310\033R\2737\177\323<5\007\214=\216\304\256\273\315\005\231\275F\376\335=\t\213\212\275\037\003\222\274\300H\310\274\370M\353\274\177\001\315\274<\244\220\274\254\366\325\272\217C<\275@\262\247\274\341\'7\275v9\214= ,D<\226\276\350\274h|&<\245J\206\275\017\324\375\274lad=\377\'B\274I\234\274<\023\204\274\274 \016\344\273}2\233\275\370\233\032=$\224\264<\346}F<L\356\221\275VU]<\221\002\226\273\370W\017\275\330\344\272;\336<\034\275)\003\364\274i\251\226\274F_\313\273q\220o\275\"\376\325\273\324\265\000\276\236>\246\274\377r\305<\342.\231\275?<\222;\3044n=\360\231\006\275\240w,\274\272\337\225=\242\257\230\275\303\330\226\274g\301\252==\251\374;\246\316\025\275\370\002\245\274;d\246;\236w\360\274rr\320\274\313\366Y\275X\036\230=+\336C;\030[>\275\220\302B=\264-\255\273\376\301\365<\373R\303=\301bG\275]\000\r=t\025\n;s\245,=\004\267\032<\357:\270<\200\235\235=,\210\206<7\300\020\274\2141\344<\260\235\220;7B\223\274r9\345\275\272R.\274\236*\374;I\245\202\275T!E=I>4=\001m\"=\216\255\'=\205\260I\2747\272\320<\\\312\260<\210\200\n<\246\241.=V\277\363\274\322\023\266\274\221\010\206=R\003\001\275\214\251\201;d7B:\261\300\204= \355?<\221\320\034=\211\014\340\274;\255\221<\023\250\003\274c\343!=\261\264\027<\314\021\017\275\252\220\034\275\364\235\233;x\211,\275\275\225\342\275Y\273\316\274\3235\336=`\235\r\275~4\222\275\202\234A\275\331\360\233=\311\340\351\273\273\266@;c8T=\225\276\252=\024io=\206I2<Z\251\207<\320V\276<\001\226\252:\3508\014\275\36203\275\355\232!\274;W/<\235\311T=\357[\350<\367# =BE5=\340\327t=I\230\226\273\203~]=\357\260\270\275\200\344\242=\203\263S\275\366\361H\275\325\006\215=\330\260{=\251\321\217\274\272\327\001<\357\024\361\274K\023\314\273\335\301\241<\253\205\337\275\327\373\214\274\373\237\307<\346\203\344\274\244\215[;\333\352\243=\307P3\275z\234S<\334\225\002;\216\257\'\275V\006\361<\316t\233=GV\302\273\031c\334;\030-\204=\257\025\220=a\022\300\274V\2050=c4\222\2740\275\010=\310\303\231<s\207\013\275|\340C9>\334*\275\377\034\206\274\300$\274<\363-\221\275\324\352\215<R\372\362<\317\306y=tfT=\356\233\245\274|0.\274\322J7\275\275\0345=\366>\013\275\214\304\207;/\201\343\273\225\0134\273\372\314\002;W\250\275=\266 g<\342\334\241<\005z\032=\225\233\257\274\0164\265<\276\262#\275\232\323\235=)G\n=\367\342M=\345\002\217\274\3361\000=]^\372\274\206\3544\275y\002\313==f\000>|\0068=\265\355N=\274P\254<-\237\301\272\002\226\235=Y\216\300<\"\036|=\242\267\007\275\017\332\010\276\031H_\275\246@]\274\227#\277\272!\310\244\275\372(\231\275\212\202\221\275U\2209<R\"\371\274\r.\302\274\267\305\000\275W4\241\274H<\364\274\223\361\322=\301w\211<\357\332\353\272\321N\225;\020\231;\275^\324\023\275mZT=\326I\357:\266\262\207=<\366\n\274q}{\274Do\223<+U+<\313\3064:C\'\311;#\220I;\252\235\007\275J\367\263\275x\'\003<\324a\214\273\n\321\277:\372;[;\200V%<\333p\\\275\241\304\n=\020m,\274\262\235>\275\006\273==\265\331\032\274\177l\'\275\323w^\274\203pq=\210|W=\254\001a\274\301K<\274]\354\363\272\261\335\307<~\003\221;l{q\274/W@=\221m\210<\331\232\226\275\324\274\212=5\2017\275g\201w\275\376\333u\274>:\017=\330\333\307\274\362\343\353\274\247N\233=\370\223\345;F\310\364\274\364\253\243=\334G^=\216\003\341\2748\253\335\274!&\260\274\027\276(\275|l\241\274\311$\241\274\371P\255=\325Wk<\0171e\274\252\250=\275\310|\215\274\352\232m=\024\021\213=]\327\274<S\004a=q\324-\275\013F\201=\255\333\316=v\177\025=Rx\'\2756\0069\2735l\001=\337\205\205=\307\361\241=\335\005\377<\353#\306<\303b\204\274\344\251P\275\375\005\022<h\367y\275Yq\247<\3305\267;d\242P\275}\222+\275k\332\227\275l\303\001=\223\367\026\275\3636O<\233\317\r=\342\231\326\275LI\274\273\201z\020<\316\220\277\274\257\250\322\272\320LM\275@\006\275<,\006\243<\220\212\037\275\226\331B=\343e\001=\345\372\001<a\344\347<\355\004\341=\352F\347\273\340\254\344<\350\0266=}\260B=V\370j\275\3155\271\275\002\257\027=c\301\004<Hby\2743\275\202=\2319%<\252\2465\275\276\016\252\274\302\026\\=\005\256\004\275\350a\371\274+\376\201\274IEV\275\r\215\002=2i\004<%v\005\275\376}\020=\n\354\312\274|\253\337<e\013\300\275\036\3137\274\257\243R;\177\'>\27536\035\275\244\355\003\275Q\007\315<\241\331\212=a\004\223=P\251-<\265\206\023\275\277\264\025<\217\205\374\274K\253\203=#\240\327\274\204E,=\235\'\023\275\367Q\317\274\033\362\023\275wW\274<\"]\341;N\336\226\272\004\244\001=\210O\334\274\236\225\267\275~\233\223=\306\"\206\275\242\n\217=`$\320;\222\363\223\275\2435\361\273|\352\315\274\037\233\313<,$r;[g1=\206\334L=\007q\267<\005}\202=\013\302\235=\257\024\2069\240\273\345<\274\230(\2754\007\215\275\367\215\227<s\240O=\261\3076\2752\310H\275D\302\354\272Oa\017=\305~,=\027\031\"\274\234y\354\274\375s\261<\003\321\004=?\321\200=\360\210\323\2745a/\275J\337\225\275\016\374I=\371\003\210<\361\306T\275\362#W=\033\334\256;\202T\276<\244\t\362<\304\004\214\274\220\356]=\362\025z<\033vT\2735\314>=\31667\275\226\254>\2745q\266<P\255\201=z?\204\274\312w\220=\r;\342<\326\331s\274\323\226\003=\310^d<\261Jq<\257\241T\275?\373 \275]v =x\241\030\274]@l=\207\217\201\274{\242\275\275pq\232<\256\255\316\275\022f\013=j\226\264;\010\310\224=\263R\324<\226\360\270=\330\370<=_\024\323;s\024\261;\270\2264\2755I\250;\203h\204;\213hQ<\323\"E=C\367y\275X \037\275^\367\025=\315C\206<k\310#<\340\337\030\275\003Q\010=w\202\000\274\255\036g\2758w\200=\t\246\322\274\242\313\027<\001\227o\275+t\350\274\217\356\237\275\360M\232\273pV\247\275Fh0=\005\270\361: W\364=\021N\336\273\020\027\264\275GB\217\275\022\342$=-v\210\274\315\001\233<K\2035=\007G\034\275\264\370\263\275\000\240\035\275\033\243A;\000\324y\274\302Bs=O&@\275\305(.=\335\353\302\274\263\272\005;\0356G<\tC\377\275\271\273$;Okc\275\233\251o=\221\000\217=\376+n\275<\274\315;~\252\361\274:\362W\275\253\333q\274\2122\311<To\247<\224\270\240=\213\273\026\275t\"\200<M\2131\275\r\"\242=\253\031\017\276\027:\007\275\250\021\321\273fM\240;\323\025{=\234\200o=\337\273V\274\321x\200;R\002\233\274\316\'\203\275\343\320Z=\346\n\330<Sm\274<7S\'=\272x0<\211\006\307<m\177\226=Dp\227=Y A;\237\321[=\274\377}=\3737o\275\347\270V=^\370\251\2740\225z\275m\3030\275a\325\300:\377\305\316\273&\272\215\274S\2101=R4%\275\237\220\302\275U\006\361\274\026\326\"\274`Q\017\275\270\220_\275\177f(=I\341/=\312\201\216\274\310\270\241\275n\266\227\273\003\262\256\275\231Xz\273\206\350Y\275d%\234\275\010\363_<\234\351T;Y\211\346\273\220$&=\232\262a=/^\256<\"\224W\275zb\033\275\246\302\001\273f\375k<(\366l\275\223q\215\274\223\036\202\275\367w\275\274\003C\'\274\312\274\211=Lt\201=\256\221\n;\276\210\251\275=\212\305\275\267 X\275\200\235\232\275\255K\300=\244F\227=J\255\234=_\016\205<v\247\026\275\254Rt=\260\350\303\272\252\262\023\275\360\200\036=C\347\203<\275\264\300;\327\227\014<\351;5=\023x\207<2U*=\325\242\344\275}\263C<B\320\302;\334o\317\275\362 \375\274kd$=\302\341\017\274\264\260s<\343\307\203;L\010\033=c\336\003\275\363\027\241\272\210\320\257<\014^;<\304_\372<C\227\263<i\002`=9\001l=\200\"\234=C\034e=TF<<\216\\\366\273\323\300\342\274\246\322[=}\313\202=,w#=\217\322\003\273\310\003\033\275e\2513\274h\374\026\274\361\316\254\274\3673\002=\311\213\202\275<\222\025\274\005^g\274\277\031<\275\360\177\241\275\036\316{=X5\017\275\307\365\267;\307\036\027=\361OV=P\2055\275\207S6=\365\347\260=\273\370\2558\337\355\217;\340#\017<{B\033\273.\2708\275\034:l\275\376,\374\274\270s\341\270:u\221;\351x\245=w\202\022=,lr\275mn\373\273\\\362\034<\3425A\275\213L\326<\nQ\331\272/\235\206\275\253\375==\371\224?\275x4\332\273!\262\006\275\\>\014\275\025Lw\275\222\334\253=\022\t\001\274~+\373\274\346YP=Z\025\347=\354\\\370<5D4=\204Bh\275\330-|:\214\"A\274\367\305k\274\327\377\354<\315a\222\2743\324L=\002&\211=\211E\224\275\335\241\363<\177\001_\275\224I\004=\237\373\227<P\264\256=vY\021=\2407\351\274C\031\t;\367\205)=\207\0149\274\274oK=@\341v\275\210\260\220\275\214z\036\274w\334\236=_\3130<\260\346\254=\"\253\005\274$\312\201\273\202\254\314\274RP\245\274\367\355\247\275\227\037S\275\302\211\351\2749\233\341\274Q\237\337\274\352\276\332\274>=4\274\031l\331<e&\003=:d]\275\365\276<=\016\030\352\273\010\030\217</\005\r\275\330\001\340\274\353R7\275\357\310\250<\001:T;\177\'\205<W\203\030=\031G:=ky\311\274\333\020O=\000\310\303\274\277\236\263<\020\302\215\274\005\330V\275NG\324\273p-\352<ql*=/\306\205;/|\370\274z\352\251<?I\034\272\215^\006\275\254\312\033=\001~\004=q\221\230\274\037\262#\275\200\375\005\275{\356\224\275\237\222\261;;(5\274u\233\351<\206\245\237;\354\272V=\350\273\222\273\022\253\240=\275B\235=_\360\'=t\342\271\274\217c\217\275K\362U\274\t\223?\275\031\257\030\275N\367O\274\325\345\211=\005\235/\274\363e\206\274#\241\220=\0161\203\274X{\230\274\"\204\332\274T\363Q<\036?\375<\312&\266<v\306\034<\240\035<=\236\266R=>\372\306\274Q\027*\272qO\356<\016{m=1\034\221=X}~\274,\367\221\275\333\013>\275\347\257M\275\331\362\271\274\262\017v\275{\3753\275H\323\005<(*\207\275\245\376\327<\341M)<\257\370\027\275LW\275<Enq\2745\332\265=\252{\236\275GW\034=R\205\223;\037\316\326\273\374\304\001;\362\220y\275\017P\356<\337\357\235=3#\210\275p\264\222=\002\372\033<|#-\275\024\370\330;_\314\003\274,\242\355<i\311W=N\346\260\274|\320r<\001\356\210\275n\025}=\352c.\275\344\332E=P\267#=\303\223t<\026R\334;\363\357\323\274l\202i=>\223\023\273\336\3463\274q\203\312<H\003k\274\237K\246\274\305\036(=\002\332%=\364\036\265\274\027\361i<v\347:\274D\322\333\274\351D\274<(K\016;\237LP=\235\016\026=\3100\347;JY[=\206\336\037=\312T\255\274s\374\245:\2107l\274\246z\251\273i\262\236=\267f\235\274\037\236W\275\313\305\013\276\243y\000;\336\266\005\275\253\267W\274\312\314\236\275FB.\274\210\335\001=\273\315]<]\257\\\274\266s\323:\365\020|=\276\205\266\275\317\215\226\273\023\025\227\274\273\"3\275\320pw<\357[\253\275\316B\t\275\351\020\006\275c\203\224<|\255f=\326W\247<\273\350.\275\224\222\032\275z\330Y=\016\006:<|\263\036\275~3[=B\332b<\264\013\353\274\315\315\251\275\213\377!>\345\246\364\273\350\037\306;\254\254p=\253\253\036\275u\203\204\2748\255\013=l\220\035\274\0149\325\273\3704\203<\'\366\216\273\224>]\275\025\350\275=\254\0240\275Kp\005<\367\025\260\272\257H\240\275\375\261\370<\225\223\312\275\321\202k<\276\274-\275X\316\335\274\245\217\003\275,G\007\275\037\301\277\273\2126\305\274\237\006\\\275\344\300\200\274?\264\n<\021\372\211=\024m]\274&\340\202\275\340\351a=\r\224\034\275\034\241\014\275\247\003/\275\020\316\377\274l\212\034\275J\035\372:\241\312\234<\213\347\200\275\265\247\267\274\004$\217<-\315\204\274\350\306\323\275\371\t\360\274\260C\352\274\315\277\202<1\005\231=]\376]\274\026\253\177<@.\342:\347\236\360\274\360\241u=\371B^<\255\2462=\240};=\016v\243=\2615\311\274K\374\031\275\237\017\007\274Y\377\363=87\337\273\351Gm=%a\025=\356\235M=\357\310\242<\347X\230<\200\027\337\274\207\201d<\000\271v<\024B\022\275\037K\271\274\265\204r\275\224\335\257\274\262\323\014=y\021\252\273\346\343\000=\ny\n\275@\253^<\036\253\335=TW%<1|\372;\221\240\331<\226D\024=#\3531<(FE=\365d\273<XtP<!\217P\275]\305\302\272\177\266\233\275\372\344X\275\363\263\367\274\032\252\305\275!\320s=!7\212\272\340X\273<xE/<e/>=\310\353\304\275\027\030\205<\334\253%\275\373\225\353<\221\335\251\274\370Xu=\253\nh\275P\370A\274\022\274\322<\271i\027\2751\313\255\275\'%v<\251\224\272<\346=\222<\353D\307;*\310\275\273\031P\234\274\273@\226=\3568\005<\367\2343\274\177(\341\274\240ZS\275j\332\205=\340\344:\275\031\254\024<}\003!\275\375\345\372:\245\000\\\274\262\371z<\251lx<9\277I\2744\306\t\275\203I\347;C\202\241\274\2708\r\275$\033[=\354B\005<\344\230\210=\314\327\203<HvQ\275\005\220\356<7\254\005;\021\303\205=\247\245\236<S\025\0029\227R/\275]\375\230\274)\007\376\274N\225 \275wW\215\274o.K\275}\345\007<\217\333c\274\235a\024=\233\362d\273l\r\211=\034U\017\274\361\177C=\312R\245\275s\234\361<\021\315&\274 c\204;\305YE\273t\342\237\274\'l\006=j\373\275\274\345\306g=\356\323\202\275\262\021\201;\235X\274<Pf\021\275\026v\347<\262?\263=\276\032\267\274z_\256\273\347\312-\274\'R\005<\374s\353\274J\004\375\272Sm\346:\230\301\320;\242\260\032\275S\026\225<\305\224\317=\356\022U\274K\271\331\273\201\334!\275[\335\013=\320\225I\275\274\226\371\273\311\312\375:\220@G<8r\376<n\001K\274\311\266\274\274\267\231W\273\024\312u=\336\357\230<\363\306\312\273q\177\302<\241\253v\275\265\333$\275\302\262E\275\020\r\301<\035K{\273\377\2201=\233\262\217\273\005m$=S\\\n\275M\351\271=\375\2631=\360\347\211:\223\223\272\273\006T\261\2756\346\303;Jy\305=\226\013\301\275\307}\273\275\313U\271:\200\355<=\342^\033\275\264L\230<\355/\270\275\371\007#\275S\324\222;\327\205\310=\273\360\037\275\374\323j=\275\202d\2755\223H<&\035\216=\177\255\233<<\335D\274\260\264\016=!o~=\367uy=+l(=\227\317\007=\350\375\332\274\221Q\205=\333\302\320<\361\006\375\274,\310\216<\275\232\200\275{\234\301\275\304\001\346<\327\3549\275\035VA=\227\210\"<\377G\t=\300NT\275\034l\035\274\304\233\225<qy\370\274}_\027\275\220@D=\270JJ;\034\212\013=\341X?\272\327\2107\274\312:.<\313D~\275k\340\344\2715\252F=\\B\365\275\262\355\332<K<\221\275\r\021\235<L\304\023=\273\256\335\274O>\276=\246\237\031=NE3\275\315\177\375<a\204\320\274M\361\032\275&\355C\274\335\013\032=\277\"\236<\357Vv< \244\341;Aq\020=\206\234k=U\017\314=\2238\350=\357\236&=C\027\247:\356\241\303=\342V\007\275\240\325\016;\006\2262\274u\343z=\361\366K=\240z\013<\262\375w\275\205wO\275\016\234y\275\365\240\365\274m\030 \275\227\024\006\275\326F2\275\3053\322<\375\331l=\367\255,=\265\301:\275\261/\227\275\232\204q={\267<<\033\327\210;e\323\2649\3126\025\275DSR:S\327\330\274\355u#\273\275\350\030=\2034\212\275X\264p=\264D\210=\222\366>==E1\2750\032\230;l\326\347;e\344\017\2747\036\016\275\303G\031\275<\246\336\273?g\t\274\r\376\214;\037\227\347\274\001p\231;O\t\001<\273F\370\272~\250\006\275T#\315<\216T\244<\264\267\220\274\n\330N\275\301\364\003\274[%\221\275\302\365}<y\307\327;Ln\301\274z\347K\275{/=\275L\235S=\003\201\344\273\\\214\302\273\363vi<\014\036/=\363\331\000=\310\306\274\275=\276\2369\0163\261<\256\272d\275\257\212?=\034=\352=/\036\251\274\177\'_;\324mT\275\035\362\003=D\244>\275\3717\355\274\357\304(<\330\017\234<\01413\274\365\\\213\275\001\203\025\275\373\277\275\275\024\260D=0\220\221=\275/Z\275\013\177\364\274\021\025\346\274\375s\005=\027W*\275W\307 \2758,]<m\252\232\274\351\351\213=k\006\226\275\226\327\253<*.\303<p\242\217\275s\305\336\274\227/\204\273\377\236\"\275v\2558=\r\351\263<\337\324\232=?:\327\275\317\375\334\274J\031\037=5?\016\275\352\202}\274\306\272\005=\211Q\304=\252\024Z=\322\245\353\274v\333Y\275 \002]=v\234<<,a\300\275\276\214\362<\002\263\204\274{%\265<\025V0\275\352\275\004\275\235\337c\275\354\354\366:\367\371\'=P!\214=;\337\243<\017\206k=\000\026\177\274\266(B\272T\334Z\275\315I5\275\263\302G\275\253\032\377<z\270\222\274\221Q\315:p\324\341;u\275O=\257\343\205\274u\314\215\275\242\350\001\275\264uu<\340\223\036=\211H!\2751\000\352\274\345\031`<\221fF\272\235\031\24586{j=\206\374~<m\002\007=I\034\035\275\344\301\010\275q\210\240=X Q\275\267\366Q\275\216C\276=B\372U\275\307\206\207\274\362\211\266\274#sB\273\\7#\2752\244\206\2739uK\275\231Z\311\274\233\256n=\034\255\370\274h\001*\274jo\203=:\341\235=}\'\364\274U\370i\275Y\332[\274\220j\277\273\0213\301=\001t\262\274\373\032\242\275\367\226\224\275\275\177\356\273^)\037=\257\000\305<\366\005\226\275\213\0364\275\303\213\020=\257\263L=\362H\247<\330\206\266<\304\362X<yS\307\273,\366\006=\260E.\275\224\334\343=\263\354r\275\365\225B=\233=E=\027#I\274\240\020\246\275\332\260\303<v\307\331\275P\273\203=\013Th;\254\325\220\274[I\374\274T6\0249\334\206\221<iI?\275r\354\210=\005+\n=\323<|=u\255\336\273\370\022\252= 0q:\262<\263\274:f\320\272T\037\217=\244\013\242\275\252\037\026=\031\314z;\233\244\267\275Z\324\234\274\327\240\233<^\033\206\274\360\310\201\275f\224$\275]\242\374<\206\376Q<\325\030R<\2653?\275\246\007u\275\240\301\326\274\361\310\002=\334A\000\275\214\352\313;\324\377n\275\202D\336=\024\271]\2754\"n:T\3743=\234\220\243\275\\N+\275A\036\225<B\241\337<\n7\364;\322n@\275h\300f<\205\3161<\034\343\311<[u\215\272\342E\254\274\026[\237\273\204\210\001=\025\365\233\275\271;\035=\030-&=w\222\347\274\257\024H<8\377\014\273vX]\275{\302?\273\340\377R<\337j\n\275;\3635=29\362;lJ\206=\365,h\275\254\331[\275\233\311\370\273 \020\016\272S\323-\275\341\240B=\\\2349=\007&\333<\037\211\302\273\317\260\274<\345\261\010\275\347\340\272<\324\317y=V:\266=\265\270\232<O\341z\275\361\235\027\274q\227\273\275\003h~<?T\371<\317\333\027<wW?\274\206^\245\274w\275\346\274\361\037\245\273\232\235\003>\026\013\203<\230{\016\275/*?=\311f8\275\000b\027<\237\224c<i\356\233\275.\211A=\246\0002\274\023Ft;-\355\217<\222\331#\275g\001\226\275:\360\273\275:\003\022=.\343\031=\014\274\364\274\320\"8;,\301M=\261\243\005\275\205\323\005=\313\265y=i\352e=\306\177l<\225\035[\275\235\266\356<\"a\300\275\333\\\271;\237l\'\275?sk\275\376V\206=l9\\\275-\211\355=\330#\305<.\370\204<\375\235?\273\233\0370\275\331\233<\2759\325H\274\003\266\t;]\243\320\274\260\364\316\272\215\221\377<D:\216\275\n\222\211;\024\341x<6P\2329n\334N<\275\341\256=\266\266\240<{\032/\274\024\006\r=527=\375E^\273k\034#\275\305\024\021\275\331\235\306;[\276\031=\022U\244\274^:\006\275\365\301\260\275\030\2574\273\246%\003\275e \362<\023=#\275p\343\260\275\034\363\233=\376\253\353\274\312(0=\r\332\237\275\254]Z\2749\330R=\317c\233\275\250;\275\274\013\221\027<\316\225\213\273\025\254<\275\036\374S=\364\366\342=Yn&\275\316\005\330;f\001$\275\316\230N\275P\230\213\275VE\211\273U\325\215\2757\242\035\275GF\335\273(\004K\274\2003\343<\254\234\2579g\216!\275\0008s\275\032<\342\274%\035\371\275_\356t\275\301y\202=dH\371=\373\014\202\275\346\263\004\274\353\206k\275\373/\236\274\023M\300<\310\372\204\275\216T\375<\374\356\232=\240\024\360<\014K;\274\307\327\\\275\372]\r\274\031\030\207\274\231Y\225=`U\014\275\312\253\003=(#\031=L\237(\275J\233\201=\n\004D=\264@{\275\311\014\"\275\200o\305<#\304G\274\265\235\213\275 !\227\275\362\016:\2744\250\302\273\\a(\2743\343\243\275\244\013c\275\205b\255\275\371\201\352<\317\331\361\274\307\'\255\275X7\203\274q\332\'\273s\256%=\007D\263<\203\\\245\275\017i\224<M\375\022=\327\233\035\272\344.Q\273\377\260h<\356\206y\274\220\342\007<\304\305<\275\232l\027;=\224\360<W\251\345=\332\346\376<2\n8=\274\251\362<\266N\253\275\240%\013=\307<\315<~\245N<\332]\257<\305/\034\275N\261\321\274\023\314\354;p\371\t=/`&=EdK=\325\210\230=I\007\231\274\343K\250\274\330\3631\275N\235:\275\270?\003\275z\215\262\274\227}D=\002\036\306\274\034\375P;\220{\345:&rq\275\014V==\003\207\010\275Q7\034=o;\304\275\255\233\300\275\306\350\256\275\025\277\265=\301$L=\023v\202<\025\214\022\275\036[\261\274,|U=\341\'x\272\300]i\272#\203\312\274d\346\331<\337\220\300\275)\335J\2758\007\235;\241\032g\274V\255@;n\035T\273<a\333<\245\n\230\275d\252\304\274`s\356;\210ri\275\263\372\3379J\'\262<\013D\213<\263\000\315<\353\271\244\275\371\3012\274\252\220\207\275\360\013\006\274\021\361\350\274\371Md\274\373\267\216=\264b\245\275#\304N=\232\001\227=\307\n\021\274\263\260w\274-,\254\273\235\235\235\275\323\324I\275)\276A\275\\|\002=c\032I<bQ0\272\333\217_<}\274+=\316\206\250;\376\362\035=1TG=$\\0=M\321\373\274h\247\203=oX3\275\374\2043=7$\215<\004\000\376<\364\'\314<5\240\205=\264\021\265=\234\344\214\274[?\214<w\n\217\274\320s/;^\343S=_\357\014\274s\216\002=\334\037}\274\373\314\005;\233\003\330\274\204ES\273B\010\263<\372\233\236\275\253\263\371\273\2167\341<q\335\030=\236\263\037=\255\354!<\303r\347\274\262F&\274JMV\274\260\324\271<\356\302d=\r\0079\275\223]G;\230i\264\274\264\246T\275\2360\222<\303F\205<H7z;j$v\275\311\210v<\262\277\006\275\271\265\237<\237t\024=\313l\217;8\316v=\252\302\336\272\356\375\000\275kmn\274\257\\!\275Q6\t=\352x\230=\322(\325\274\263\334#\271]=\211=\264\250\3449\200AM9\177\344\000\275|W\256\274L\236)=\263\374(=\240fR<K^(<\004\347\303<V\315\033\275lC\230\274\217\216\270<\310d\314<\326Yu\274/\241\'\275\355{,<\320IJ\275\303u\200\271C\236\017=\322\257\224\275\373gh<L\361\021\275\315\235\177\274\201a\016=,]\256=;\222I\273;\342\227=W|\235=\226\'\220\275\257o\320\273\256\370e=\254\342V\274vV\234\275j\317\241<L\237\310=[\027I\275wj;\275_\261\275<\255|\275=\205\277v\275\322)J;(J\203=V^\014\275j\215\237;\275\266Q=ez\366\2745V\010\275\302\331 \2758j&<\023z:=M^?\274BG\207<?\341y=\301\310V9\201\307\322=\360V\373\273V\005:=\221KU<\222\233x=Qu_;V\357v<\005N\363\274g\321\255<\013\010\356;^9F\275\324\310\242\274&6C\275U$m\274\000\330\247\274\205\031\353\274\306\035\242\274\255\324\236<\236\033\251\275\265\265A\274^k;\275\276\344(<\216r>\274#\254;=Vn\013;l\263\366\274\2067B\275yn\276;\000\001\346=\235W\265<UC\371\273\247\304\325\275\262r\255\273\355\345\314\274\357\260\013<\225\347\024\2746W\031<-3\366\274\300\0277<\206\261\207\274\352)\322\274\321\245\t=\307\276,=\363\231==\243\253\213=\337\215\217<\205\020\267<<\331\333;\026\257\253\274os\226\275TP\243<\031\3039;U\325\177<\366-\321<\323\313K=\253\257:= \356c\2749m\333<c%a:U\236\303\274Nb\r=\214=\236\275\371u&\275\036N3=\010\356\254<\036O\277<T\331);l\323\177\275.\310\035\275m\013R:\273a\365<k\235\227\274\334)\224\275-6\363\274p\3238<\325\345%\275^\233\351\275BB/=\331\306m=\304o\214<\326X\230=\335[\367\273j\321\022\274\240\202\227=h\216\330\272|\316\014=d\3547\274^\024\216=r.\251<k\377\357<\355\225\200\273~M\331<\343\335\330=\031\336)=x\230\n<\263\354\031\275\225\276\254\274\251\376\351\274\215\316\225\274\312\013\004=e\017w\274\305\321\246\273\206CO\274\272\247\016\274r\260\272;\334&\212\275\017\234\277\274\370\315\t<%\207%\272\0316N\275\014\270\352<\224v\264\274P\334t=T;\215<r\3023\275\274\312+\274$\\\303<\\C9<z]@\275]ph\275\262r#=s\016\177<M\036\004<U\332\372\274\316nx\2737>\346<J\263\232=\360N\034\275,\206\r\275\362\351\224\274\314\363\220\273v)\330\275\337\322w\274S\364\214\274\215\231\037=\214\217\0009u\337\177=8\256\303<>d\n=}c\331<J~2\274\027Z\331\274~\366/< \212\"\275@\364p\275\\| <\305c\025\274\364\265\240<3\316/\273\030\375\341\274\020\260\014\274\323\354U=\265%\335<\231\215\246\27169\331\274\311\006\207<\253!\r<\004F\214\275\370wj=\326K\220\275\035ng\275\333\035\265=@\005\366\274\201\234\030=}\276\301\274\202\255\367\274u\353\237=D\237\236;\234.\253\275\021\037\036\275,dm\274`<\303=h\335\300\274`\005\373\274\370\332\200\273\rM\371<\301\035\275\273\223\016\230<\334\337\352\274!\305$<\265^e\273\215M\255<\3162\374\273\351b{;$\004\354\273\022\230g=%\375W\275k\326d\275\345\302\3219]\234\005=\312\3474\275\372c\300\275\352#\252=xU.\275U2,\275W\315h\274w\270x\274uC@\275\341\217\230\274\323\347\205;\330j,=\245bt\275\255aj\275\375\311\332=z{\316<\351J5=\301\303$\2757!U=7\006K=\217\315@\273\000V=\274\033D[<^H\004\275\300\300\001<\237\307c\274N\201\225<)\377\357<x\306\312<\201\344\307<\210|\177=\200|Z<\266\025\217<q\300\030=\320f\203<\247\201z=\223B\322\2746\0332=\357(\n=\321\340S=^\207 =\351e\257\274o~\216<\304\360==\374\035\271\275\356\206\322<Z;_\274\314\215\217\2755\275\213<`\217\351\275Y\332m=\036\267\332<ES@=R|\260:7\344\233<\203T\251<\254\2053\275\"\\9=\331$\240;\262\037\225<O\t\217=/\301X\275\311\233\000=\320\224O<\373\274=\275WI\360<\200o\221\275\np\225=k\344\264\272\326\326\361<\006\210\277\274\363\226\277<\375\026\365;\250\252\263\275\333i\000\276\367\315\003\275\364k\007\275$\257N=\356\224\346\275.;\204\274\256\254\013=\311*\205<\003(R\274\245\355\237\274\264)0\275\030\267\275<\231\202\307\275>\246C\275\323}\226;\224Lu<\002\341}=\363\360e<\214G\371\273;7]\275\330\236\261<{\262\021=\355\352Q;\335\264I\274\334 }\274\240;5=\252\317I=\264\226\266\274\217\010x=\300e\000=\314\332\212\275\215\266D\2752\217\226=\301I\301\274vsG\274\224\302\266\273u\323\016<2\377\036=LJ\366<\302\337q\275\316\217U\274\255\311\n<t\215\363\272Y\215\223=\321\003\033\275\270\211\323\273\001\245\026<~\001U=t\217Y<R\2463\272\377\214\r\276\245\370X=\230\034 <\347\016/\275|\333G\274}\261\274<\203\237w=\304\375\024=G\214\003\276}\344\334<\220\235\204=\004\nB=\307\273\204\275\242\315\016=4\200\036\275\3721\n=\006\365c\275KX\222=xT\222=%tC<\203\232\370\274\t\342\260\274\377X\272\274J$\243;\351\016\372<\000\342\361<\346~0\275`:8\275\325\030\337\272\n\233\242\274>*F=\263\220\000=WmP=\262\213e\275\333\247\235\275\276\377\370<\n\023\317\274\360\350\357\274\226o\236\274PB\235\275j\372\006\274E\335\202\275\021l\264=H0\260:\344\244Y\274\304\201?=\243\265\313;\347\260\226=\360\013,=I\033\266<[\\\006\273\333\364o=:\001\325<\221\254q<eB\331\274t\352{=\361\243\033<<\234G\275 \257\237<t\243\225\275\366\312\311<\354\372\226\275\223A\261\274 \227D\275\336g\221\274\310-y\275\347$\n\275z`\027\275\377\335\034\275\271\0378\271\3174F=~\240?\275\3244\005>w\020\257<\t\231\265=\031\360\243\274\273\320\334<\333\263\t=O\035V=|\017o<\370\231\323\274p6\310<,5\016\275\226\372\323=\314a\320\275CGW=\343\010x<\321hv=l\2318\275p\231\202=\327TI=}\t\373\273]6\000\275\377\270\237<\267R\001\275\323\"\255=\257\237t=\0178\232=kI\031\275\364\020l<\020\021V<\206\276\002\275A#\320\274(\222s=\333\371\205\274\223B6\275\360\362\004\275\226d\322=X]\246\274\214\223U=\363\344W=>\007\023\274T\001\336\274\003\301e\275l\322\203\274!\324\025<A\221\025=\320t\3679\006V\372<\344s\217\273\347[\230\275:\261\025<=\377\355<q\321\235<\233\375\005\275\261\343\365\274\342\034\023=5\211\313\274\016AE\275EY\253\275I\253|<o\203i=)\241\306<lP\256\275Fh\302\274\270\224p\275\234\003\310\274\306F(=wk\024=g}Z<\252\2206\275\324\017+=\337\017r\275\033A\237\274\314@\335\274\014H\317\274\240\032\010=?I\212\275p\213\004\275\347\241\255= \033\373<\264\355\243<\010\007\323\274\217\345\360\275\022\233\010\275\003\177z<\257\372R=koJ=\257\226:\275\232\025\177\275\221\353M\275\311\265H\275\276n\256<wW\326\274\344\217S\275|m\244\274]\241==\265;S\275\315\204\235\274\347\036\244<\346\327\304\274\010\252\313=\311\327V\274\321\035\031;iAK=\267\237\376\272d\000G<\335\221\032=\350m5=C\212\n\275\025\304\314\273H\000\272\274\345\3578\275\310\357\307<\023:\224\274;=(=z{\315\274\263\"v\275\332\203\222\274\330UX\273\031\206E=ep\'<\307\020S=\231O\373;\357L\214\274\226^\202\2759EI\275!\2541\274\204\0366\275\327\253\263<tu\n=\263A9\275py\233\275\274\372\005=_\274\211\2756\272s;\345\341I<\366G2\275=\377\216\275\307T\221=D&\355\2745\020\212\272r\302?\274\006Z\241\2748\307\276\274\327N\371\274Q\274D\273%\375\347<u\3733<\231\2553\273\274\270C8\007\275N\274J\301\247<\016Y\337\274j\267\205\275\356\266X=\373\257\t\275\377P\214<n\025\003=\016{ <\350\301\343<\241\300A\275:6\214=\225\265{=G\375\366<0\206\034\274yE\010=\347N\253=\313\256\013\274\335`E\275\354\225+=o\021}8n\221\275\273\277\000\243<3\253C\2755\006\307=5\016\030<r\325\032;x\340g\274E\201\303=wf6= _#=\2552\'\275l1\217\273\223\350\341<\332\"\207\275\225\200\230\274;ZC\275$\275h<4W\277<\315\202v<_zv\275\273^\324\275\3473\345\274%\0270\275\236\235r=P\347r\274\223\024\242\274\2137 =w\353\257<vp\363\274d\001\n\275\361\314-\275\236\365\r<R1\363<u\256\211\275\314q\034\275\010\033t;Y\034\003=\232\244<=(=\333\274\027\241\301\274b/\217\274K:\025\275\362\213&\275\355\264\350\275|\371\355\274\211S;;\300\305\303=\254\327\026\275\211p\034=\346X\326\274\023\374j\274\016Ph=\010:3<%\266\031=Q\241\273;\331(3<.\354\256\274\277\031\206=\3066/\275\266\373h\274Y\240|\273\221s\022\275>\353\267<b T\274\260\313\025\275\306\350\230\274=\000*\274\231\340\323<\241rF\275\240<\035=QB\266\274\005\300\261=\266\224\361\274\022\371m=u\201\337\274.\216\177<Ay\023<x%\362<<\336\237<\204\334\203\275\265\336(=*\037\377\274\273d\356;\252\356\272=\256\005 =U\026\004\275\026x\313<\270\231q\275\330Z$=fa\210=\325Q\317\273\'\274\017\274\370\242\305\274\324\256F=\002U\225\272\332,\301\274\232\tP=\267\215J\275\314q2\275\255\360k\275\304{6=^\244\314;!\346\214=\244\021\264\273\014^\223\275\253\215\245\274s\303\352\274\371\016G=\267\276J<V\021o=\370\351)<\231\035\020=\272\275\002<Q\255?\275h\014\331<\246\rF\274=\325\323\2746,\021<\333\355\201=2\010z=\350\304\225\273ll\247\274\361\013C=\315\346\010\275\264\322\257\272R\036Z<\355\343\016=L_\203\274\262\017\035=\275\220\265<\000H4=\233\023a=Q\214\014=\376\363#\275\252\313\341\273\361\n\255\274K\036L\274\355\024\330<\216\214\026\275\004T\232<\201K\203\274\022\234\236=H\313\277\274\2718X\272\034\021\231\275\037X\023\275\005m\214;\225\376\276\275\202\320W=\273:\237\274<\342:=$\270G\275\237\034w\274\306]]\274\246\n\272<J\375\266=lW\377<\022\377\202=ih@\272\000\341s=\255\263\360\273\264;\367\273\026\340\202=\342\276\306\273q\335\016\275L\2424<\247t5\275|\273\226=4\355Z;\205\347\205=C\224B=8\354\312<-\275\232\274\233\\L\275\334%Q=\234Kc=\201-S\275v\302\027\2757\347\301<\022\n\205<\356\212\033=&\366\261\274o_\270<\201\322\341<\352\266}=\037/\020\275\365\323!\275Q\306V=\2107\272=2\002\311:%\207\347\274\027hz=\033~R\272)n\007=\023\347\017=\323\203\275<\034\004\201\275\265\371\371;\277N7=J\246\032=\034d\353\274\302=\200\273Qo$\275\216\256B=K\342\256\274\002T\205<\266\004\201=\305\254k\274\300k\215<\343\204\242\274\204\365\355\274\036z\231\271\3151\364<}\271\376\274\t/K\275\264pS\2759\\\3629z7Y\275d:\336\273L\341*\275\321\"\331<\372\036\026:\316\3226=[YR\275[l\210\274\233\376\270<?\244\260<\315\257\336=\206\377q\275\021\000\215\273\375\234 =\2737X\271\347\033\177\275\364\344\220=\314R\316<\350\364\230=A\237H\274\3724\220\274\222\247D\275\367\357:\275\003\021\201\275C\n\316\2749\205\342\274\327\275\245\2746\375\231\275\275\225\202<\234\036\032<\252f\206\275\231\363\n:|\361\325\274\234\371\024=z\351\207\275R\214v\274 r\333<\202b\034=\3054\257;\035\367\007<\025\211\201\274\366o\226\274\023\232\244\275\337\333\331\274\236{\346;\253\371s=I\376Z\273\207\t-=\230\236\272=\346 \366\274\250\2458\271\177\356\306<\220\334\215\274xv\356\273\351\361E\275[h\031\274\022\335\204\275\301.6=\342\254\330\274\223\034\234=\257\236\313\274\365 \010\274\253\3324\275\360\t\022=\210\373\321\275\234\003\216\274\367\204\014\274\031\302\267\275e\2048=\010\325\022=\361G\316=\017f[\275\300\0209=?.\000=\326R\220\275\313\374u\275\230\035?\274\266/-\275\014hE\274|\000A\275S7\305\274M\000\251=\371\255\243\275\220\213\034\274\014.\026\273\250\025\323< X,<\271\2118\275m}\273;\262*V=P\000\032\275\362Wc\274H\260\202=\373\342d<\370n\002<tu\007=\300*\"<\317\2774\275:bg==JK=\022{r<p\330h\275-\024t<\021o\003=\231\017\231=\330\257\355\274MF\251\274 s#=\021|\016\275\3720\332<nyy=\330\025I\274[T\242\274\022&\226=eaQ=\324&\255<\227\303\210<%~\302=Z\003\204\273\027\216s\274\331\336\341<\21149\275\013\337]\275j\356\325<7\273#=\3121\030=\306l\221=\256\340[:\214\256C<\221\366\343:#}\217\274\024\334\215=\217\315\013<k\257S=>z\224\275\207\363c<j\334\002=\337\210\205\274\244\241\257<|\373?=N\362\034=*q\201<H\367:=\372o\201\275\226n\272=\004\350_=\300K<=E~\036<\217\301*<C,\032<\333Mn\275\325,m\275M\254\"\275\337|\315=\245! \275\221.h;+\006\346\275\272P\037\274\226[\014\274\204b\002\275)\235&;\332?C\273d\243\267\275\021\006\364<[\346D\273\3759\007\275\003\274\321=\256M\203\275\214@\331\274\177\265\026\274\314>\326\274\'mL\274\306=\000=\252\320\035\275\014N\307;q~\032\275:y\003\275\363~\362<&AD\274#\217\322;\367\243\206;#\357\243\275\225\204\356<\0367\304=\217\037\323<pG\206=~)\002>2\352\030=\215\002\345\274=Q\235\274\370g\"\275*\300\257\275~\203\321=\220\266\326:\376Bw\275\352\374\235=\233\010\207\274>p%<\321\271\306\275\351*\302\274X_6=d\375\357\274w\022\352<\237\231\246=\214\274f\275pKH<\\\217>=G\322%\275\231\243\260;\320>\035\275t#\271\273\265\366\273\273_\231\t;\'\303\347\274o7h\275dC\340\275\334\010\001\275\"\350$\274\035\276\t=|Q\211<\332~\014=\3543#\275\306\305\257<|\237k\275y`\000\2752\0019\274#\210\322\275\036\2038=\376\376\336<\027#k=\324\321R\273\362#\001<8\001\316\273pn\032=DRF=\346\322\023<P\276\003\275\230\366\251\275\317~\224\273\323\214*\275\351u\223<\255\013\021\275z\314\010=6_\021\275&\367\260<\222\025\320\275\202\n\200=\362r)\275W\267F\275V\276-\275;\272)=~\326\275\273\333l\305<{d\026<\200\275\037\275/\374\177\274\377Oy\273v\205X\275O\021\235\275\362\022\215\275b\313W;\324\321\315<\310eu\275\265\226\277\274B[\200<\243\273\214\274\264e\036=kR*=\353k\007;\021~\304<|\336\227\275:f3<\366\366\360\275\204\310\013\275uEO=\265s\333\273/\251k=8CE<\344\335\207<_\014 <\216\r3\274\343rW\274M>\221=\377\244i=\257\265\224=F~\023=\200\363\245=\311\254$=\246\306\017\275\220j\302;W9Z\274J\356\330<L\224\332<\223 \273\273\234=\023=\332B\347\274U&\316\274\203t\257<\342\231\021\276\000{7<\020X\204=\363b-\275\375\320\215\27310A8\263\016\263=$ S\275\022_\244\275\257\271L=F\226\010;/\347\335<nZ`\274L]]\275\216\257L=\254\255\257\274\350*\245=\031\220%\275\324\337\204<\234\353\343<l\244\177<\306\326<\275\205\217\224\275\351\373\322\274\221\321~\275\255\372\256\274\346\214\347;\032g\367\275\201AM\275\261\030\033<\224%W<0\3772\274\3318\345;(aO=\305W#=\312\234\271\274\253\277\260\274\341\016&\274;\213\231\272%\222\n\274\367Xv=\245e\236<x\203o=\251\327\213\275\325CB=`{\206\274\211\367\216<\262eq\275\316\017j\275\034\267f\2756\230)=\'\367\002\275\177\215\372\273\236\356\250<#x\006\272\340\276\365\274l\020\004=\232\234\021=\264\217W<\030 T\275Y\354\035=\343\312\353<\304&\275=\010!\223=\275\034\220<\202\256\237\274p!\376<\005\257\213\274V\353\344<{\357\036<\007\036W<f\252\270<dx\266<\245#\245\275*\276\026=\240\335P<\241\004K<o\017\263<\327\323\333<\273\264)\275I\244\r\275\200\303\277<J\304\306<\363p\276<\234\223\013\275\377\223\023\275.\317\247\274\273B\261\275\000\343x\275\314\342x=\247?d;\371r\326\275\343\\5\2758\334/=\303\356\227\274bd\004=\362V4\275\347\243\037\275B\177\367;x\276\242<\241\377\275;\r\335\005=5\220\245=!\344\007>\314\203\026\274\256\253\257\274\037>\033\275\003\351\213\275\343\270F;\277TS\274@\317y=\317l\317\273\201?\245\275n\246\014\275\212z\340=\304|T;6\353\016=$\276\240\275\207\2224\275\217\376\377:\315\255\263\275`8\262=\030\345s<\206\007m\275{\253\327\274\312\003\210<\005\254l<\014\330I=\335p\236<\024\177\347\274\327cF;\225\223O\274\335\t\244\273`\244\332\274\227\254\212\274\362k?<\235\340x\274\345@\030<U<\325\274\212\247\217\274_\326\365\274l:,\275\030\341\006\274\204\372]:\261&j:t\310\367\274\205\257\242=L\001P\275!\256t\275\254\227\237\274\201h\223\273\037\235o=<\355\035<\351\275\031=Q\364Z\275\202-\306\274\327\240i\275w;\346<\372\343\305\275\t\304\001=\317\373\006={\226o<\246\356\026=\254\3240=\375L\312\274\203u\334;\021u\n=\332\263\221\274s2^\274\245\341\003\275\267]I\274O\322\031\275\346/X<WPG=\323Z\226\274\3053\234\275\361\2477\274\016\242\033\274\2327t<\237]2=\217r\027=\347vW\275\021\255\234\274\217\352\362<\234\257\"=O\377\';\220Y\256\275\361\213\000\274\013\022\313<W\nJ<#>\225<\317V\222\274Et1=\362\307\\\275OB\226\275\230\361K\275\310}\330=\201,[9$\322\337<Y?\210=\024\360\005=\261\036\335\275\230\245\226\273\tvQ\275\250\256\223\275\316\315\246\274\323\214\275\273#gf\275\366\271\251<\200\210-<\351\324\303\274\273\230\363<\306\025:;\333L\255\273\244N\362\274T4#\275DR9=3\006\345<\213\252\274\275\001h\234;\230\232\230=\317\237\344<\241\232d=\234\257\025<\014\217\037\275\243\006\031=\320\370I=\277\353d;\252Z\317\274\260#`\275i\033m=\221\213\373<\245k\242<\035\n\023;\0200\366\273\006/\010=\2640\330\273y\001\023=e\036\264\275\226\220\327<\024\221$8\335\030A<\226^;=\307\362U\275\031.{\275\377J\316<!\316\020=u\206\352<\260\366\303=\031b\201\274\306\261\376\274\022\375\224=\256\t&=\023C9\275\266R\246\275P\027%\275o\014\017=\001+\r\276\007\2206\275A0\201=;\277U=\357\n\307\274}\233\004=:$\314\275\362\3472<\320\346\016\275Giu\2755\004\312=\236cl\275\025:\313<@\200F<\006J\254;\n\'\337<\036\035\206\275\276\351\n<\301)6=\345\222\326\274\007\336\305\275\331\026\n=\342\252\344;t\206\003\274\255\377\022\275af\263\274SV}\275\364\205\204<.\331\205<\223\225\367\274\324\230\351\274\200\3446=@\003\314<@\365\r\275\006\036\200=\243\212L=\337d?=\ni\370;\220\300Y\275\016~\354\274q*\210\275\266\023\207\274u&?=\013\200\031=\237\305\223\275\315\340\255:\273\312\205\275\271\353\375;\344\262\364\274VF=\275&N\266\273\364T\216<\223^\177\274[L\370<\232\305\023\275\204\325r\275\244$\212;\220\365@\270=\325\275:\307s\210\275\261\0344=^\337\223\275$\367\020<n\253P\274\373\264\271\274\255B\207\274z\260\213\275\365D\272\274C\016\254\274\213\275\265;\272\344?\275i\262\243=\264 \305\274C\230)\275\276\014g=\211L!\274\257\341\023\275 \345B\275\n[M=\t\366\n\2756Ku;\r\225U=\236\344\347<f^\215;\233\020I\274\274\003u\275\274\0145=\250+\272\275m\324]\275\355r\033:\262-\236\275\356\221;\274\033\261\335;I0x\274L\324\204\275V\037\232<\001&\355<\257\305\222<\3717O=\034\367\310\274\354a\\=F\016\323\274\3655\200<\353\356\233=7\362\016\274\251\326\247\275Kl;\275\306%\t=\3717y\275\202\253\332\274;\346(\274\037\205e\274u\031\021=\016\204_=\3109\r;\031\312\'\275Lw(\274#\214\023\2753\241U\274\314Zq\275\023\3746\274\305|.\275\345\310\005\274\240G\327<\257\271\020<\0163\021<Z\306j=M\312\022\275%6\276<I\217\331<-J\257<\213\251\313<\036\256\n<x\252c\274 \334\263=\203Q\263<3\234\272=mz\036<V\2366\275\270\2763\275\265-P=j\352\n=r\203\231=\005\241q\275\247p1<\335\236\023=\013\260\235\274\363a\267=\013\342\225\275\354\033\307\274\371\366\272\275U\303\241:\321O\320\274\357,\207\275&\031\351\274\202\325E\274\361\311\r=l\002\354\273\355p5=K3_\272\322\221~<^1\256\274<\363>\275\365\214\235\275\272v\023\275b\330\207:\013\365J\274\236\336\217\274\227\006\366\274P\010\314\275i\216\353<n\0269\274@\036\213\275\021\354\235\273\325\317\214=\367\210e<KY:\274\363\274(<\227lU\275\252!)\275\306+N\275X\374>=Q\235\203=\315$\302=\224Sm<8${<\267&\221=Y\201W\275\370\002\242<\307\005\t\275EN\212=\334q\237;\237F9<\221\374\340<\353\331\346\274c_\327<~\254\324\274\217\215Q\274\321\2243=\336\322H\275\333<\224<\333\373\352\274\372\004e\272f\254V=\261\367\252\275\222h)\275\334\t=\2753\315E=\350\352P=\020\266:=\344zs;\347\037\305\273\025\337\202\275\"\212\271\274V\266\"=y\274\020;k==\275\010\334\010\276\227\2408\275\266K\326<\004}\035=U8\232\275\240,>=\345\200\035\2752\252\234\274\236\020\222:\025Da=a\344\206\273\251y\002::T\365\274y\204\014;\203\205D=\247U\240;3P\201=J\327\027=c\224.<\352 \300<m_g\275Y\251\364\274\224\247\227\275\363\276\022\273\277\tg\275\010\333\213\273\377\272\202\275\034\366\010\275\227D\266\275\034SV=R@\205;\226C\201\275\033\2654\275${E\274Xo\0309\332u%=\177Z\237\274\251\360\206=\333K\234\274\362\352H=>\303\347<?\002q\275\036Z\257=r(\240<\335o\331<\000\264R=\377w\352\275=\021b\274\301\205b;7\205\\\275\032\376\267\275\002#\204;\000\025\';\370\2345=\316\"g\275\237dc\274\304\017b=\301\203\240<\303&H\2742\312\010=\352z\027\275\346\341\024\274\371\025\361\274\017\2756\274=x\302\274\007T\'=\326\272\376\274\036\375\251\274e\177\000=\261\202g\273K\350{\275\232#\272;\254\033/\2754\272\003\276TP\222=\233\211\221\274p\266\321\274\t~\205\275\334\234\326=H\365\362<*\216,=\350X\210<\300\344\030\274\033 C\275W\032B\275{\331\302=\206\276R<;e@<`=\004\275x\205\005\274\002g\266\274\032GK=\376\243\322<\271<\324:\320Z\3227t\002\032<\213\213\037\275\037\220\003\276\212\213\376<j\345\030<],\202\274\363\327m=\025m\034\275-z\325\272\261\252\013<\302i\322\273\277\014\261;\375\305z\274\021D\023=\244\0225<!f\003=8\261*=\240\355\332<\341\025G=c\023\203\2757g\013=G7\245<-\266\346\274T\322\267=\017;S\275s\324d<)!v<NV\020;\037\266\376<gt`\275\300\253\024=\211\n\020\275:\000e\274x\013\005=\030u^=B\237\216\275\013\266\233<MX\010;\353\312\244\274\214\370\302=\025e\347\274\324v\247<\023\202\327\275\177\273c\275\366\314\223<\376Xl=\214\333\235\274\336\305\256<\245y\r\276\033\027\230\274\016.N<\300\321\263<4e\271<\207\037)\275\352T\355\274\375\350 \273C\277\350<\010\2266\2732\360\351;\346\353\000\274\300U}\273w\366\306=FT\226\273\374\223\372\274\253\000\332\274h\251\243\274r\307\230<\034\n\205\275.\036\317\273\024\020\235\2718\014\300\275\"\361$\275\331\353\223<\004(\014<\323\341_<\024&\232<\033\257\"=Q\257\341<\354\233-=\366\371\312;e/\237=\014\036\247\274,\361X;\365\337v\275o\033\2519\301\227\317=j\022d\273\270\000J\275\363;\341\274\271\264*=\254h\252=g\205i\272\005\272\241\274\343\010\261;\r\251\252<\347\004\026=4\365E<\232]j=v\203\363;\036\267j\274|\256\260\275n\246\214\275\356\352V=I\332\202<\027\215 <\003w\211\275\247U\203\274\365\027W\275f\333\203=-\016\273\275r\2662\274U\376)\275\255\367\350<\350\3475;\320\316\234:\377\n\034\275E\305\370<\227@\215\273\342\032\032\275q,\216=^\240\024=$\340\007<\301\'\210<\\i\342\274hI{=\2651\251\274p\200>=\310\001*\275\\\3675=W)\226\275\304\233\325=;WE\275(\323\363\274\367\000@=\220*$\275\004\251h=\323\203\211\275^\017\001\275\240C\207<\214(\302<SkI\275\373bF\274\017\033\006\275x6H\275\033\2529<S\220\032=\256\255e\275\277\267\020==.\010\271\3223\302<\3335\322<\203[\r<`\250\2428\014.\311<6\311i=#!\003=D+\337\274\2771\357<\303\337\277<\006\236[\275VD\002=\230\202\\8\3752:<\253\021$\2757#u<\221Z\223\275\225s2\275\211_\205\275:\347\207\275\346f\227<\035u4=\224\270\006\275\277\333\225\275!\325\201<\243F\277\270?\215~\271C\022!\273\367\007\201\273F\031&\273\003s\t=K\327\235\275YM\360<\002\362\307=%z$=g70<U\323C;0\311\200=UVF\273kI$\275\377=\375\274\310e\256<\360iO\272!\375\361\274n5\210=Z\220\"\273\260\313\257\274~N)<\330s\006==|?<$\304\027\275\267\236\232\274\370m\256:\366\177\277\274g\240\230;\020=_\275Eq\245\274m\256d=\036k\002=\325wN\275\320\022!=h\204\207\275D%M=\266\321R<D{\216;Fb\344\275\365\241y<\003\325\006\274\331\376\005=\2320\300<\216\317\013=\035\314\326<D\206\337<\320\022 =\341\234\201\275\206!\023\274\303\370\311<\225j\016=e_I=0\332q\275\215\366}=I\243)=\273\336\t<kF3\272\025\204\036=\225\215x<\231\306T=^b\236=t\t\257\274C\260|\2750QX<\234\320\223\274\316\032\264\275O\033|\271\216\377\206=\357t3=\025\271&;:\274\251\273\354F\254\275\364\317D=\245\271\006<\267\0205\275\240\236\306\274\272\270\001=P\276\344<\367D\217\275\203\200\014=w\345A\274\273\230\230<\233G\366\274Rr\315=P\007T\275N\322\016<]\023D=\207\356\360\274\\%\236\274\344\035F=_\214#\275\177,\307\274W\230\272:\221\365\311\274\026\033\321\2745|-=.Rg=\033\256\235\2741\223\227\274\345\017\034=\314 \246;\261v\\\275\201\366\022=\311\221\345\274\256\237Y<\310Ff=\3019\020\275@\224\247<S\260U\274\362\247 =ma\342\2738\312\306\274\\S[=\237\233\372;\025\214\032\275\351\245\231=~\'\273<\210qQ<\263Y\014\2747\226q\275\364@\202=\200\334M\275\213J\234;q\335*\275N\331\336\2759\0002=\020\313\251\273\274$\357<\203C\213\273\034\323\226=\235\021\302=\336\"X\274\363\213\206<\300p1\275\204U\247<K\003\212\275<B\252=\333\326\002=\207n\330:\254M^\272 \200x=1\204\203<\215\374?<\t\262\r=\274\341t\275\nA^\274&\305F\275c\267$\275\306s\213\271\224\022{\2751]\321\274\033\000\245\274\214H\035>\'\303]=g6\356<\t\211\200=}\216F\275\246]\203=5\247/\275\261\246\010\271\373Y\333\273XH\256;\307\343\203\275\321\367r=u\314\364;\254\3342=M\345j<]L\220\273Q\177\027<C\020C\275\212\332\001\274 \322&<!\0142\274\244<^<\366\345\263\274\027;\207<\203\016\203<\246R\307\274^\306\277<\201\005\"=\036k\331:\330\306N;\264\341\307<\222*W\274\375#\221\274e\2424=\364\253\024\275\3164}=\343\335\333\274\314\324\237\275\024\206\242\275\346\353\003<\237\020\032=\235;\357<\337\326\251=x\263p=\'\267w\273_\3015<\264\026\215\272\202\311\260=\215%\200=\300\227D=pj\322\274\025\215h<\320n\357:\327\312\244=\371\302\232<\354pi=\312\361(\274Zj\205<5\203\353\274\331\334\205\274\304\235\211\274J\362&=\304\'\243=\260n*\275\265\207]\275\214\245\255\274\307m\226\274\217\213\262=\001\223\330\27536-\274\'m\244=\315\026\262\2731\245&\275\323 \\<`u\213<\350(\325<\026;\214\275h\033\372\274e?\224\273\036\371\350\275\326\354;=\240Y\n=\233\211\016=\201TX\275\225\214\250\275us\231\275\236\036\304\275\022\2520\275\267\022a<\201\361\260\275\222\003\353<$\206V\273\301\244\177\274\307\274\232=\322\352O<\216n\221=\204\247\345<\346\003X\275}3\216\274\375\245\236=\373\262\356\273\207y&\274\024\305\034\275\364\033\004\275\272 \246<\"%\223;\312\335\360\274\305\221>\275\020q\017\275_\346\327<5\004\231=\312\352\221=\272\354\227\275\274>\035=~(\336\274ZB\006\275\263l\306\275\035\\\030\272sSs\273\367\0242=\004\221\002\275djs\274\302\225\202\274\315\356\t<$\310\225\273I\200*\274\307\370\030=\n\343\\\274.\215\330\274\273\323\007=\001\216\212\274\240\227\022\275{G-\274\353\260K=\323\356\231<\262\"\246=\222n\237=3@\251\275\240\335`<\322\347\225\275\221 %\275\261\000\245<\273\331#=\275\241\013\274\177\213\266\275sk[=^\r8\274~\3564\274\331\275H=\014Z\227\274\274-D\275y\3354\275\210\000\005\275S\035\214\274C\002K=\245\201J\275\225\035$\275#\260\354\274\021X+\275~\017\371<:\020?<\373l/=8\262g;\232m\371\274\2216#\273>[p\2753\026\210<-eB=<1Q<\320d\276=\361\023B\275\023\005>\273\037\357\202\2744W\025<\301R\231\272\020\213\031\275\345c4=.\334N=\216(v\274M\273\362;U\224\334\273\360+\212\275\243.\235\275}\304\230\273Ml\242\274\375<g=\250\177\203\274]\336:=\305I\216<\344\254\346\274t\246\375\274{\2358=\355\231\037\273\235\243\216\275p\351\271=\323\t|=\026\230\016\275\277SM<j\265 \275\260\252I<$-P\275\263d\020\275\355\253\031>2C\204\275\310\2419\274\272\334\255=\364=g=\345\364\350;\211p\372\273\216\223\220\273\310\310\210\274\235\226N=HA&\275\252\277q=\216\372<;\305M\244\275\374t\273\273\220\n\271\274\220\303\317\275h\234\273\274\273\214\342<\320P\352;\202\022\305\274k\312/\275\301*g\274\205\346a\274\262\317y=^\024\374\274\254\211$=\005PN:I4\331<\021\336\265\272|s\376<\035\'\034\274\021E\246=q\\\022\275DO\310<\241\306\241\275\340\360\247<\347\207\233=\000\003/\275\014\350\201\275\245K\007\275\245\300\376\274*\356\344\27401\r>\3361\331<\210(b=\230\276\324<\253w\021<\247\243\205=\3007\364;c\350(=\367\214J\274\253\250\220\275JQ\014\274Yz\203\272\370\204F\275\305\'z=\260\260\007=m\217Y\275B\342\217<\225\2356:\332\302H\274\006\357\274\273+\277\242\274\225e\313\274\230W/\274\227\251`\274|\305\"\275\277\271\212;\236\363\255\273\014oj\274.\t\222=8)\304\275\353+\222\2756\332\361;\332_\331<\345b\346<\257\362W=\235&\2538\261\273\237\2754\'\276<\375\324\266<\003\2721\275{&v\275A\340\201<\261-K\275}1\262;{\233\036\275\332\253\302\271\304y,\275\323~>\273Rb\014<\267J\t=/\272\200\274\323\317b\275\250\204\'\275\332\306\227\274[\004\223<\320@\306\274\315\364\214\274\005\215\211<\315\240\263\275z\254\213\274,\\\023\275.e\224\274\332Kv\275\3678\037\2753\370\304=\374K\265=l\317\271\275\016\377\003=\362\253\263<\277\360f\275\350\267\r\272\265\370\207<O\242\242<\'\t\353\274\331\312#;2\020\312:\371F\277<e\346\242=\t\030\024\275\226Y\222\2740\032\326\275Q\343\314\274\016e9\275\356T\276<\313f\004\275\271\364\311<\343\266\322<`\231}<\362\321\231<5\370;=\341zy\275v\302#=\256\254\010\275\260\377\263\274]\2046=?\335\373<@\274\337<G\3014\275\231\312\231\2742\202\201\275\323\241\367\274\344\020G\274u\275<\275\203;s\274o\342\274<:\264\222\275\005A\251<\242\271\234;\204,\007=\301I\240=\2178\026=\232W\352<\337\300\234\273\025T~=\325\210)=\340\200\316\272\347\006\300\275\2246P\275-D\202=@r+=5Cs=\360\327\330\274\342\213\367\274\264@J\275\337\226\374<y_\225<\213`\336<\306\001j==\342\322\271\206\260\350=t\266\224=\025\231\253\275]\273\265=\221uE=\262\000r;b\027o\274r\356\025\275\313A\216<I\000r\275\321\3360\274\315Y\252=\305\245H=S\331\271;\276\235\235\275\233\017W<\356\207\200\275\371\364\311\274\267\300\214=\347/\242\275\200G&=\027\327\027=\35135\275c\350\215;`\233\021\274\227\264\272\274s\360 \275\005\t)\273\206\037m<\270\254\347=\004\250.\275Yi\345\273\247\353\204=T,\205<L\306Q\2751R\203<@\2408=}C\322\275\255\273\263=K\322\202\2749l\237\275\311\225\002=\331y\272\274\325\3239<\032\205B;\014P\"=6\377\337=\024q\220=\210]^=~+\037\275\210H\277<}^\232\272\323\313>=\2700c<e#\277<\377\310S\275\271\016v\273\315`]<\373\340\210\274|\020\233<\204\236\000=Y\025\310<\267h\013=l\2066=5&R<\264\373\035\275G\233\217:\207\035\352\274\245o\025<\3163\274\274\013\ru\275\3574\261\274\315IW<N^0\275\230%D\275z\177\311\273\336\330=\275\224}\261=\026\007\255\275\0348\263<\353X\276<\177\320\000<\241\274\320\274\r\374\254=D{9\275r\247i<\010w\204=\002\324\227\2750\363\037=\003\306\017<qy\340<\300e\273\275\036\003\022:\340\371\355<J\\\350=Y\320g\273Y\231\223\275C\303\246<\2068\025\275\327\235\367\274dn\007>\306xE=\'j\210\273.\237\021=_\333\031;\206B\266<Y\r6\275e\360\023\273\022$\245\274\242 <<fV\001\275$\323\317;^\221\247\274p\210\271\274T0,<\343\206\200\275pD\315\274\026\263\301\274\372\264\014\274\005%\223=8\342[;\013}r<Owg<w-f=\341$$;\356\366\241\273O\242\265=%\205\276<8\026e<\203\037\035\275d9\222<\177A\234=!\007B=\276\026\245<\370\274G=H@\'\275\305\345\265<\246\344\302=w\003\324;\002\222\030\275\203KE\274\006X\343<\tLm<\3245=\275\324\006\320\273a\337\014<\200\017\017\275n\252\257\274\244M)<\245\'\341<\233[\261<\356\2528=\020M\240<\377\210\220=19\013\275h\332\n\275\031\334p=\237P\352\273\033S\353<A\341]\274\274\263p\275\321o\315\274h\224-=E\234\365\274\216P\367<\364\"\327\274N\004\014\275\033~\304\274\264\371\023<a\354E\275\333S\340<\026,\t=Y\311\002=\332\026\2418\036\330*<\022\354\241\2742\256\233\274t_\006=\377m\262\275.\247b\274\325\356[\275\177\251\003=`Bx\274w\035\022\275\350\345T\274i\327\221=\230\341\t<\037Q\303\274\336C\306\274\226\275\013\274\273;C=f\325\315\274k\221\250=\354\313\307\273\001\301\016\275\252n\036=\202\234D<\247S\023=\275O5=\001\216\014\275\3756\276;8\263.\275\356U\243\2746@\022\273f\227\007=\000^\324\274t\035\002\275\354jj\274C\020f\275\343\022\030<\213\341\203\275\353\"K;\335:\324\274\347\303\241<0[\021<t\241%\275\361C!=g\364\224=3\367W<\332=P\275\300\222\237<K\rj\275\312oI\275#K\213<]o\204;\315\227W\275\013,\023=\006\373\026\275\001M\303\272\224S\206=\035\333\325<\214\331\232=N\261\023=\367#\017\275\016\256\226=k\346\325<\341\244f\274\366\373\216=h\227g<cs0\274\335\275\227<\256\023\001\275\036\213e<\014\232\317\275\200u\237\275\034\255=\275\213j\314=^\247\322\275\030\350o\2756\251\226\274K\313=\275D{\254<\266Er<\005\372\364=\r\013\216<\365ll\274\236\335$\275\3566\363;\211(<;~w0\274I\021g\273\376hR\275\0368-\275\357N(=j\272\177<\033\370\242=\003\271D\274\315\323\251<\226\233[\275\033\215v=MP\273<\260\0228=\224\027\330<\355\373\020\274\205i\224;\037\216\256\273mSF=\"\212\237=!\310\344\274\2069\236=h&\355<\032\316*=\240\333\274<\340\350\007\275\310.\330;\207\035,\275\200\023m=\257\363\202;\370\202A\27543\317\273\315\376P\274\330\262\201=O\202$=\373E\217\274\225\205\362<\221\243\260;\220h1\275\260\223\275<\\\257;\273\344u\310=\304\365\335\274\240\005\203<\224v\236\275t\234a<\260\257\331\273C\367\001=(@\034\275\247\351\362\275\333\3276=YJ\031\274=l \275\247{\017\275t^\342=KL\037\2751\000L=M\341#<>P\212<,\010\204=\377\"\353;bj\315\275$\251\t=\273-&\274\212\201\003\274R$\r\275/\260\025:\241**\272\357e\335<.\016\365=+#Q;\343,B=0\026;\275\361}B\275\370V\013\275\2210\346\274\203V\343\274\202\217\264=\357\025\331\274\351\014\001\275\252\317&\275\2744J\274\033\0179\275|\256\211\275\253Z\016=\211\020o=\035\364g\275v\002\313=\003\031\302\275\260,k\274X\316\005=\332q\200<_\324\236\274\257\013V\274\311\321\017\273Y\352\245=I\211\205\275\373\251\366\274\337\334\312\274\206)\254<\376\260\0328P\201&\274\250\341\202\275\307=;<O\220\224\275\352,0\275\340\257\255=\245\337\303\274\201\3654\275\324%\237\273\247\310U<\255\021%=\271\252\270<|t\355<\320\377M=o8x<\362?,=Q\322d<?*\355;\324\234\335<?\365\237;\245s\036\274r\311J\275\013\017Q\275\271\253\231\274\375\346\032<\267n\301\275\023\342V\275\357\274A=\237y\204\275r\007\014=\232\274\231\2759\302\202=\376f\244=\342\n\347\273P\023\024=\033\"\263\274\376f\023:D\231\217;\027y?=f\'\351\270b\236\301<2\2312<6\302\301<\357\300/=\276\261}<7u\207<\356\211\345\274\327\3774<G\021u\275\366\252\224<F\342$\275\rg\312\275\265\304`\274H+\354\273\367,\003<<7Z\274\3567D\275\360\"p<\347\347,;\231\303\037\273M\344\030\274\247\033\033;\t\207\260=\213j\307\275\363X\025\275\323\312\032=zAj\274\036x\177<\221e\235\274\206\312\020\275\232}[=\233\274\324\2747\025\344\274\342\275e\274\323T*\275K\254n\275\310\367\006=\251\373\212\275gdE\275>\\\252\274\232\347D\275\225\025\033=\214\254\332<D\233\225\275I\002\021\275\226\237\270;g\220\020<6\355R\274\024.!=\270q\341\274\000\345\204=\356r\246\275\035w\372:\345\205\262=g\244{=]\322\334;9H\216\275\315(\363\273\376\350I\275\264\257r<\335a\273\274{\244:\275\"\273_<l\360V\272\t\202\266=ZZj</\375\001\2745\255\270<\231?==\215\221I=\313\014\344:\312^\210\275e\327\233\274U<a<h#L\274\264\305\234=\374\177\314\274A-\021\276i\023\202\274l\346\032\275\213n\233=\253Yh=\241\023z\274\274\347]</\221\222=\257\212\220=n\342\256\273\304\027J\275`?/\274\t/\t\275\032\270=<\220\270\227=\021\301\256\274\217\336\327:\266\236t\275\321\237z<\260h\372=\366\334>=\010\360\t\275t\302\334=o\377D\274\333\3629\274T4H\275m\240w\275\305[\215=c\204W=\032\330b=l\305\341:\353\363\002=\340\335H\275\366\330\213\275!\000\207\275\212e7\275\264Q:\2731\331\"<n\320r=\3029$=\323\223\231<\375\350\371<\331n\252\273\225.\266<\277\177I=\3577x\275\222m\t\275-_G=w\326\220\275%\233\222\275\224\020%;%\355\214<57 \274S\365\341\274M?,;x\016\202;\206\354\020=\272\376\344<*W\210\274\247\222B=\020\"\233\273~\312g=2]\216\275L\251\313\275\216\252\014\275\251;\010<\347O\203<\364(]\274\352\007x\275\315[\211\275\t\033\226;\210\r\033\275\352A\025\275zo\301\275\332f0\275~\000\212\275\277bG<\214\242\036\274\222W\024=}\247\025=\373\275\302;\344\332\370;1\243\252\274\013\320\241\274\312\252\223\273\225\224\035<\276?\251<\323*E\274]\211$=\362\321\253\274Nv\223\275\275\013\265\273q\021\321\274=G\247=k\341\306\274\353\317\303=\333f_<\254@\264\274g\240}<s\365m;\0031\207\274\r96=\272\376\363\273Y\007\217<g\307\220=\356\253\222\275\353\310\n\274\326[\371<\224P\363\274~b\356\274-\356S\2758(w=\271\013\341\274\307\314T\275\031\363\313<\032g\005<\253\340\n\275\234\024N=\274z9=\372f\001=\307\335|=L\276\274\275J`h\273o\003\363<^\235\263\274\\\206\016\273\025\2240\275\343`V\274s\250\234\274\237e?<\304\322\014;\301\342u\272\266\301N\274\327\2326\275I\313\334=\211=[=hID\275SW\327\273~\263\200\275O\254\034\275k\002\013\274\221\231\002\275k\345!\2730H\245<\321\003\020\275\234t\315\275\023\266\250=\016\271F=D\2738\275\223\265\322<#\377&=\225\220\000\275\226\347o=EH\035=\225\263&\27513\206=\374!t\275\303\310\313<\222_|<\242\341d\275\366/\001=\032\377\205=R6\355;q\232\254;\331\222\215\275P\302\217\275\010\3172=\016\314-=\340ra=Z1\253\275\210\371\265\274\226*\266\275\256i\222<\313\362\034\275\305\335\255\274UV>=\263[W\274\314I\005=\037\302-<\227\213\256\274\247\200S<\237\224a\275$e@\275y}\237\274-o\351<\0371\251\275\324\362a\2758\360^\273\223\2039\275\027\377\236=\203\236L\275\224\300=<\270\272\335:\333\360\';J:\275\275t\236S:t\352[=\tn#\274\177.\026\273\304{\236;i\352\241:\205\"+\275\022\234M\274A\337\346\274\276\270\313\273U\006\225=\nm\t\272\347\363%\275\227\177\340\274CCC=\301\006)\275\316\245\226<\347CS=\356:8\275\343J/\272{oQ\274\252\266\017<N.\013\273\300wC<[P\010=\312c\333<\235>5=\277\3409=}\260\250\275\204a\212\275\3325\004=#\232\256\274\000\003k\275\346J\371;\035\300f=\310\237%\275\374<\r=6\226d=\353r&=K\227*=\220\330\262;\213\234g\275b\361\246<\034\373\257<q\205:<QAJ<\253rI=\177\254g\275\360i\271<3qr<mt8<\223\017\242\275\373h\230\275M\331\332<\273\3130\275\276\037\032\275\013\256*=\016\342\204=\367\010\023=\273G\365:rY\267<\355\341\341=I\002\274=\336\255\024=\022n\210<\013M\307\274\244\336\242=\004\311\206<p>G\273\300\206/\275F\004\223:X\210\177=2\364\232\275OU\023<;S\344<\372l\242<7\262\253\274#\215\022;\215\2068=v\270Z=`Vm=\262\236:\275eFj<\356\002\024=\331G\\\273\r:\233\275|\264a<\227\360r=h2\331\273\026\261\235<xh\263\275\345\227\376<\266\342.=\000\215\216<\025\037\351\274(\024\016\275\232\3764=\223\021\020=#\340;=\213Hq<K\275\202<iT\027=i\305\262\274\345,q\274\357\303\265\274\241\257\215<,\332c\273+\305\255=pX\234<=\312G\274V\035\333\274\216\236\374\273/\2260\275\346d\021=<\016\006<\204\333\264\274\n\027\034<Uit<@@\017=\361\362\233\274\206\213\311;P\224\345\274\277\2650\275f?V\275w\236\307\274 \310\253<l4\245<\"\274\217<\352J\033=v\301\321<\241\341y\275\224\257D\274l\362(\275\362\323\320<c\265\241=\232V\315=\020W\r<\006\305\230<\264.\337\275\221\321h=\330\254\213=T\016\240<:\247\225=z\241\361\273M \335<q\321S\275}\315\005<`a\265\275\341\345~<\330*]\275\256\t`=k\247\367\274\037\353\344<1\242\001\275\267\200G;8\314F=F\\\355<\246J\260\274A\211\273\274Q>>\275a\004\337\274\331W\354\273\303\304\210=\214\364\251\275\301\373\250\273F\211f\275-M\206\274\360W\027=\321\310\233;\027\265\371<\013B\235\274U\360T<\323\234\264<\031\272\003\274\n\261\227\275\210\375\022\275\310\233\007=\363\257\311<\233\236\236\274\231\246\272<kit<\320\000\236=u+\'=\235:\314\274\0024\022\275\374\305>=\234\273[\274\320^\205\2733\243\211<d\331V\275\303Nw\274\335mk<\211\303\243<W\263\203=GFp\275,\352\202;$4g\275\036\353\231=+\222q\274\267H\247\273\003\014c<\235\375\256\273\006x\373\274\001+u\273\236\344\324;\"\256\002=\206\004\036;\'\337\024<f~\232\273\"\214\307<.A\027\274\253\303k\275\357D\216\274\225&\030=\307\274\225=\260D\342\274,\027\377\275\340d5\275\336\201f=\320L\316<q \336\274(\025\227<\020\274y\274u\010\212\275\240x\342<\306C\023=Gr\324\275])6\273\313\226\353=\005\341\255\273`\245\204=m\266\255\274\037v<=\331\270+<:\377\030\275s@\324\2747\337H=\270XD<\244\370@=\357\336I\275\310\206q\2740#r=\322tg=\321.\234=\222\001\303\275k\002==\235\241/<j\\A=w!\035\275s\255\032=\234\206\022=#\263C<`vV<\274t;\275n\007i<\0349\'=\026\236\004<\013\302\202\274^\311\324\275`WY\274a\016K=C\036-\274H\026\"\275\025K\362\273\tec;\267\031\016\275\3071\003\274`\235\233;\"/\375\275\000\225k<vjN\275\330\223c=_|\247\275\270\020\202\275\013\243\314\274\'\217\016\275<\350$\275\300.\346\273\352\"\367<\302\351\370\274\032\022#=\347\257\272;\221\013\246=\"\311\007\275n\005\204\274\330\264\007=E\010 <,\353\023;\324\342I\275\031\337\010\275V7H<\374B0=\2520\001<\241\313q\273\263\240o=a\234\211\274\032\267I=}\2352=t\342\277<\333\2120\274:\270\266=\3672\376\273:\003\360\274]\370\201=\342\256\237\274\374\200\007\275O0\253\274\265\314\320<k\350H\275*\312\211=\256\264\224\275#\221\311\273\002\206$=\\wh\274\365\326\222\273\26758=\"7\300=\254{\276\274\320\371\226<\326x9=\222\326\343\273\352\271\235\275\360\326\351:\215\216(\275\314\365\027<\213\341b\275\346\001\004=\254\314\337\275j\203\223=\316\220{\274\211D\002=\004\353\031=u\362\025:\254\204E\274\261\370P<\250\217_=\332\300\014=4\345\237\273\010\254\t=\265\023)<\365.\334=\023\325\373\274\373\\\361\274]o|<\353\306\236\2756\347\374<?\333\355\274\232B}\274\342\347\020=py\205<\031N\007\274\362\233\001=\024\246\270\274\210j\337<\214sr\275\235\346u\274\251i\326;M\347#=\277\004\227\275\272\341!=\201@\271\273|\275\346\274\235x5\275\307@\021\2752\373\234\273\353gx\274\305m\371\274\263\204F=\351x\277\274n\231[<z=v=\326\0169\275U*v\275\000\247!=\375$\334<\315_\270\274\251&E\274L\227\221\274e\270b\275\314W\260<\201h\260\275\256\370:\275B5J\275\260F\"\275\2439t=\204\306\003=\017\323\342\274\375{\332\274?ys\274\246\006O\275I\336\265\274\314pd=\364M\323<\025R\005<\325\211K;*,\231\275\323Jp=@\210\003<\177-K=\036\344\322<\240\263\212=tbn\275n\317\020=\260\"\376<\003\330\003<\366\3312\274\001\366a\275F\340\254;j\244/<;\216\335;\370s-=\311q\345<\331q\235<\243\016<\274\247\303\317\275\207O\000\275V86\275!L^=\000\t\243\275\313\342\256\274A.D\274\335\375\263<\271!w\274\034\306\217={>\371\274q\213\031\274\276+}\275\217?\337\274\253]\233<\346\200\256\271\210\243L\274\275\354}\275\203T\224\275\3738\305=\006J\202\273\\\332\002=[}A\275#\260\003=\245\212k\275\366\236\202=\2104e=\301\263\004\275hy|=\013\363\207<\213\335x=\353mE\274a\213\215=\006\023R=M\372\002\276^\025\200=\303)@\274\311~q=\214\203\204\274jN0<\314\300\001=\326\351\240\275\337\253Y\275\234/\033\274X\204R\273\357\327\026<\350\354\346\2745<\025\275\225\211C=\241\356{\274Q\014\254\274O\243\277;8\270\004\275\273\\G=\215\004\225\274\241\'\277\275s\034\235\275fB\271\274\212\002=\275\334\223G\275{q\t\275\334\027\207<=\271C<\320c\302=f#\251;u\'[\274?\307\214\274n\035\211\275Z.\200\275n\233\321\275\201\366\216\274<\221e<\231\357\014:D\201X\274I\201/\275\310\263\231<\333\242c\275\327W\312\274G6\016\274i\\\3079X\002\216\275\301\346\274<du\206=\305\213\000;\366\230b\273l\370\377<K\212\305\273\240\206\210<=\215\210;@J\026=\336\002\232\275S\274U8\304\004\016\274>\\\314\274\005\216\231;\315V\214:\247$\326<\325\334\027;2E\251\275\277_\253=%\033b\275w\323\037\275\315\230n\275\260E\207\275d\223_<]\232\270\2749\036\005=\354S\322\275\010 ^=\016x\311\274\\\370\301\274t\312?\275\3770\224=#\223\245<q\374\213<cf\33673\374\242=3<n=\326d\275<_\335\261\272=\331\316\273j(\225=\310\347\261<\373\205\240\275\034I\032\275\021\343&:(0f\273\235\272\223\275\214|?<\354\032#=\263\274E=-<\354<\304\021\240\275\235\304K\275\371\323\013\275\346Y\206\273K\032~=\301\261\225<\334DE\274\rxz<\204\315\241\274\277\243\034=`\261\025<\262\211 \2758DF=<\312\312\274\327#\376<E)7\2750\007\230\275\t\210\022\274K4\201;w\007\300<\340\032\263\274\350O\306\275\227wG=0\232\306<#\266O=\320\250\330\274\013\377\324\273\255\004\245\274*=5\275\363\026X\275\345\215#=\241o_\275\352c\202=\237\203\214\273\207\251\313\274\245\360\310\274\240\266\003<\273\353\256\275\331\257o=,\200>\274\331\253\315:\275\036\034\274\002\323v\275\033{\271< \t\207\274\016F\275<\301\005\270;&\330\235\273\250\247\274<L\323\217\273\024\001\333=lE\230=O \014=V\340L\275\327Y\203=\0019\227:\217\362\212<X\365\217\274Z\272\210\274\003\341M\275D\377\305=6n <i_>\275\300\311\032\275\245t\236\275\225\377j\273\250\'m\275\257\3434=_1w\275\240f\030<^\375m\2753\201\014<F\033\343\274S\035V<=\205\361<;\370\321<|L\347\273\335\236B=\206\232\007;\247\024\256\272\312D.\275\341\331/\274\350\224/<\245O\367= \371\264\274L{\274<JB\"=6\250\032=\301\265\225\274F\333$\275f\207a\2759\336?=\226\372\316\275\372\361\001\275\310\277\217<w\316[\275\370\342\020<n\2711<f\363\242\275\000\211\322=p\314\275\274\260j\177=rH\323=\340&\201\274\3531\010=\334\375\023=~6c\274\036\212%\274\213\220\237\275\036_]=\314\352\272<\271q\207\273[\212+<VA\367=$s\264\275/{E<\3164\306\275\362\360\310\273\357\036X\274\221\312\n<X\177j<\340\314>\275\343\r\037=\366\346\314<\205\205M\274\027\023\035=\341\226z=\315\203y\275\314fH=\320\307/<j\357#;\312\356\352:\n\235\356\274\2164\312=\344\030\337<\317\247\236<\266\305\357<\261\222~<\036\264\235\275\204\316\265:9\373\337\275\210-\244=\276=\205<s,\366<\2406\233<\364\361\344\274\r\214U\2744&_<\202\037d=\017\375.=\337\212N\274J6\207=\355`\236=3\222\032=\363\206\177<\323\322\317<\236\242{=2\241!\275\"\236s9\2121z\274\315V\271=\202\201W\275\377C\235\274\001Q\203\275\335\341h\275t\365\333\274IA$\275\332\005\004\274\351hN<\2044\t<o\273\025;\241\220\016=\230/y\274&\303U=*\027\215=\027\233\206\274\000\2537\275\344\017\276=\267l\265<?\232\255<N\003\330\274\220\207\t=\021\264\001\275V.\317<\374\227J=|\245\267\274\001+q\275\026\222\230=\010\322\365\274\025\213\240;\035\262\314\274\013\251l=[\227H\275\230\276f;\"av=\353U\375\273\014\347Y\275v$\027<\006z\272\274\201D\207<\260}\326\274\236-\311;\022d\271<RBV<\300\270\221\2745\217\226\275\212NA<\036\2211\274\363\361C<\243\352\2159\013\200\202<\356\000\217=#\2553<\321\255\\\275gbF=\013{\347\274\023\037\235\274Cw\235=7\300z=\213\203\201<9Y\227;*\304s=2\207\310\275\355\355Q=\250\010+\275FIU\275\002\312f\275\231\000\206\274\265\324\005<\001\312\213=<\377\233\275{\253*\275\211\000\237<N\274\274<\231%\244\275\257\302b<;\203\007\275\324t_\274\0018V\275?8\223\275|\2603;\016\205\344=\204\352\336<;G\023<\n\\U<\323\350\250\274\"\306\201\275\230M\215=\032\211\232\275\023V\340\274n\301\353\274(\"\017=S\026\366;\206[>=\316\342\325<\354\356\021<Sk\177\272\261Z\321<\221\215\250;Z>\025\2757w\344\274\374\241#=\327\207\023=\326\314c\274\336\373\364<b\364H\275\332\215\016\275\217G\317;\033\000k=\004\376 \275\332\201\311<_x0\275}\3655\275\273\334c<\376@A\275Q\031\274\273\222\362\210=\375\024\"=\t\203n\274\317m\274<\315\026\240\274\253\253R<\024\"\035={\364\'=\340\321$;a@\236\275\226]B\274X\254\307\274z\203?=\226Y+\275\202Pf\272\250(\'\275N\036\037=\320N\301;\346A\203\275\371\320\246=t\355\332\274h\260\340<\254P\355;\004\0206<&}\324<\325\005\376\274r\214[<\035X\253=\375\002z\275s\300\230\274\033\376\374\274`r\211\274\016\317\024=`\374_=c}(\273\321\327y=\212\242\317<\307J6<\222\302\270\274\362\221\204;\341\033\023<\024a&\275\351S_=^e\246\275\271\332E<\263w\251\271\261N\204\275S\236I\275h\373g=\210t\020\275\006\033\276\274[\231\311\274p\272\254\274\267\302f\273\027\206\213\2751\373\306\274\265\tv\275\203E\030=~\316\021\273$\022m\273\324\253\254\274\331g\\=y\"\037\275^}\\=\303R\277\275\343\327\237=\025\014>\274\315&\303<\214\324\223<\317\027I<\300\322\030\275\373~\257<\260\035\354\274&\305\245<\367\201\013\274Z\312\320<\233<\230\275\233-x\274\246@O\275:\260\346=\230c\\\274w\252\336<#\024\244;>,w\275\201\332\\\275\236@:\275\264H&\274\213\341\222\2751\360\275\275\240\302\t\275v6\245=\271\263\336;\301\304\212\275\313\242J=Z9\212\274V\001u=\013\367`\274\201J\247\275\352\300\270;\377\310\254=k\025\223\274\327g%\2757\023\033\275\345\236\325\274\332\365h=\360J\274<\303EE<\357\024\026;\370\312\216\274\0004\244\273\321\272\232=\300\221(\275\241\363W\275\245\030\335\273\214MD<\024\222\276\274-\331\255<`Wg=\024)\371\274\034\345\243\273\267\352E\274\004K\213\274\315\241`\274\374-\246;\271\217\246<\313\354@\275\275\204o;\273\314\214=[`\031;\304,\026=\252Uf\275X,\273=I~[\274?\300\251\275\214\335\213\273\231~9<Q\300t<=`\321\274r\272\272<\334fo=O\314\226=\251\223L\275YzM\274} <\275;\201\252<zr\033\275\341\371\353;?\3419<\206,\363<\314S\341<\271\367\307< \336\314<sl{<\'D\270\275:}\220;I\300\321\274\314I\204\273n,\210\274\217q\030=\332\266\357<|\010\336<\021\356\211\274\2028\216\274\200\302\232\275\332Z]=Zz\025\275\262E\030<\246_U;\306UH=\177\3245<\023XV\274\330\230,=\265<\371<\274\311\252\273\241F\264\274o\214V\274\242\205\216<\220K\355:\363\t\206\274\334cA=\276X\204=\326\316\321\272}\351b<\205\252x\275D\316\273::=}=\305\3422=v\013\354\274\243\226\026\274\327\252\010\274\241b\032\275\372\213\215\275,\275\226= \351v<\226\022\016\276\326\013U\275\235|\231\274A:\251=Yu\341;\266;\251<\026\320h\274r\375\332<\274\303\003=V\034\237=\375Q\212\275\334U\213\275\311D\331;\010\354@\275\027\332\225=w\003\215\275\332\177\000=i7w<6\322R\274\230\360\322\274\244\223\313\2758;\231\275\370\177\247\274\031N\235=\362\213\214=/\243\004\274\254uY=\264\216\016\275\306\360\000\275\3051\262\274\276\244\250=N\377\006\274&\025\225<\363\342r\274\347\346U\274\363$;=w\360\026<\257\251\336\273l\320\267=\370<A=\205f\227;\356:\025\275\276c!\273\235A\030\275\347W\r\273\253\010\033\274#\204\030\2749\035\\\273\235$_\274\254\252H=\004\373\010\275\236\244\234=\311\264K\273\306\301\265<\221\262\364\274\266=\234\2750#\202\274\332\005\214\275\373|5:rc\003\275\364_}\275\007\035\356=\240\346Q=\310\234\344\275\267\255\245=pk\375\273\377S\346\274\202Y\272<\200\247\334\274(T><\034\033\333<\360.\007\273\206+\000\274\267g}<\370\304T=3(\005=\373y\327=t\215\233<\223j\253\274\323\006\313<\255]\024\275\217\330\235\275R\326]=t\300\353;\353\212\037\274\030[\242\275\251\273\217<@\207n=L\034\214\275\304\005\004\275C\3427\273\305gO=!}\"\275\244+j\274|il=VS\206\274\260\270\203\273_q\347;\277[\027:\375~.\275\224^}=R\344\020<\272=\'=\245\246\273\275WF\242\275t6\341<\303[\265<AS\030\275t\374w\274\036\222`<f\371\317\273\350:\033\275hR\024\275\262\014\020=\n\235\364\274\325\230Q\275\022\023\262<\242\200u\275\024\020\254=\372\\\241\275J\217\357<\362\2573=\223\311V\274\322\307\315;f\261\324<\352@x\275\035\247\036\274)\325\211\274\234/c;\007\211\201\275\322O\205;\303\300(\275\324i\023=($\327\274h\323#=\271\324r\275\022\024y<\344\320s<\274\302:\275\337\033`\275\202+#=\\v\035=\006\032\311\274\207\267\016=M\201\214\274\237P\343<\213\252)=\341\315\342=\371\002\372\274H\312w\275\030\322d=Z\263M\275m\016\256=\237\013b\275\302\000\020\2751\352<=9\0328<~\002\020\275\3700Q\274\003\035\371\272\335v\003\275\322\230\304\275VL\372<V4\300\2730.\320:y<T\275f\375\262\273\035\346)\274\277\245\350\273\'\266B\275A\007\241\274\372Lg=\354X\020\275\276\317\243\275\366L\007=+\226\204\274\240:\213\272\271\365\362<\242\025\"\275\333u\007=saI<@\005\014<\336\3143=\343\276E=X\277\244\273\205\004\007<)\2621\275khG\273\020\241d;J8(=\340\"\373<l\243k=\254\250\246;\314dn<\204#Q\275\3729\274=F\2016\274\270\210\205=\272\'\236\274G\334L:_\223\350<wMO<jgg=vSd\2758#/=/\003\000=)\357I\275\3231\256\2748)E\275q\262\203\2738\247c\275*\222b<)\320\265\275\254\235\236<\272\240%\275\203\265Y<\014/]\2755\014\216\275\230\257\225\273\266\262\216:\"\022X<\217\353\376\274g\202o\274[L\213=\337\265a=\304\023\214<\221Q\236<.\343\262=_\235t=W\336\205=\365\341\210\275;?\216\275\235\247\303=\177\006\234<\020RU\275\217\302\236\274Z\266\205\275BJ\237=\3051\260\274l\221\361;T\365\325\274\347\227\356;\273v\t\275#\3606\275\262\002\332\273t\214A<6\n\272\274ju\316\274\316\352\207<\332\267F\274b\302\214<\0366\315\273\237\004\200<08\363<\354\022*\275V|(\275}X\311<\017\232\n\274o\315\224\272\246d\022=\021\317E\274\306;\023<\313\216\010=\274\252\014\273\225rw\275\304\225-\274~\351\036\275\344\366\337:\003\341\320<\335\322\032=\255}T<\023m\201\274\230.\246\274\341O#\274\255;\006\275K*D\275\214\201\205\275\004$\236<<\271#=5T\017\275\306~\025\274G2\'\274{\000\022=\006[\216\274\355Z\\<`\242H=\037\017m\2745\035I<\316\r\n=J\344o<j\2116=I^\303=\3153\215\2732\212\234\275E\032\376\274TU\004\273v\367[=\223\320\273=\3413\226<\354\264\325\274\024co\274\010(\305<\275\226k=\341D\247\274\021=D\275\\R\200<\304b\350:H\350k<\274\233\201<\252\3359=K}\n\275\350\250\322\274\013du\274\321\305\222=\235\202\201\275\273\367T\275.\3063\275`\301m=\241\250G\274\256\002\221=\371\n\310\274z\031;\275S\340\376=&f0\275\277o\213<\r\206\205<o\260a\275u\306\034\274z\301\016\275\367F4\275\327>J\275=\036-<\327\223\233<\003K\030\274\326v\224\275\371\220>\275\024\253p\274=\311\274:g\364y\273/\363b=_, \274\273M\262\273\033a\224\275S\222\027=\201X:\275i\033\230=\312\371\305\273y\237\264<\332\305\252\274=\276\347\272Lv\260\273\260R\322\274\006u%\274\033\007\257;\350\372\276\274,\236\227;-\316\017<h\260\032\274\232`0\275\274\354\221\274\225v\035\275\340t\371\274\005\002\006=\343%\021<4oU\274m\325\247\274y%5\274\211\240\'\275\357b\220\274\264\224\263<y\376\332\275\020\002\304\275\235\300C=\020\"\023=\371\265\003\275\362\327[==\177\016\275#\027\206=\213\350\206\273\306%\226==\003\250\274\014P\024=\261\023\272;\371`\037=\336m7\275>\2423<*v\242\273\363\320\367\274@\353.=\266\372)\275\236EF<\226!\206=\310\230x=r2w;\241\201\325<\030;\253<\232\006\245=cO\222\275\0368&=\345\367\216<\347\227\221\2741Qa\275T!\254< \010`\274*\025\021\275\364j\367<_\366\206\273\213\222\274\272\250\317-\275r%:\275\345\204d\274\037\t\377\275\302\345\237<\270\377\340\274I\201\302<\362\235\234<\337\223\032\275{\353\204=k\027\237<\307J\316=B\245r=\306\2113=\317j\337;\370\030\334\274\322~\315<%\300\214=\332\276f\275\201\336\200\275<\237C\275\333\350(=\330\036\260\275\357\306.\274\372v\232:V\367@=\251\316a\275\035M\244\274\215\035Q<\370\337\210=\361H\220;\027\316\217\274\265^ 9\220\324\260<g7\270=s\210\325\275\375\211\n=[\253\302=\334j2\275\332\335*\275\302\212\223<nuB\273\321LC=,\363\366\274\246\224\2779.\361g\275\315\035\303\275\030\227\215\274\033\362\033<\260_\202=P\332D=\351P\220=\261$\223\2748\017\3479\377E\300<VB\017\275L\rv\274m>\004=\304O\317\274\006S\266\274g$\357:\313\354\002=\316\256\277;\237$\302=\252.\212;\222j\032=\374\247\333\275~v\215\275S\206`=I\247F\274\033;\210=\377\353\200<\212\234C=Q\241\301\274,\315o=\326\310\305=YZ\'=\005/&\275\t\337g\275\034\037\224<h):\273\276\032\204\275\237&\335<dL)=\204\210\037=\031\205;\274\3359\024=\273\356\245<L\371V=\275Y\241\273\375\035\213=e\334,