node {
  name: "StridedSlice/input"
  op: "Const"
  attr {
    key: "dtype"
    value {
      type: DT_DOUBLE
    }
  }
  attr {
    key: "value"
    value {
      tensor {
        dtype: DT_DOUBLE
        tensor_shape {
          dim {
            size: 3
          }
          dim {
            size: 3
          }
          dim {
            size: 3
          }
        }
        tensor_content: "\000\000\000\000\000\000\360?333333\363?\315\314\314\314\314\314\364?\000\000\000\000\000\000\000@\232\231\231\231\231\231\001@ffffff\002@\000\000\000\000\000\000\010@\232\231\231\231\231\231\t@ffffff\n@\000\000\000\000\000\000\020@\315\314\314\314\314\314\020@333333\021@\000\000\000\000\000\000\024@\315\314\314\314\314\314\024@333333\025@\000\000\000\000\000\000\030@\315\314\314\314\314\314\030@333333\031@\000\000\000\000\000\000\034@\315\314\314\314\314\314\034@333333\035@\000\000\000\000\000\000 @ffffff @\232\231\231\231\231\231 @\000\000\000\000\000\000\"@ffffff\"@\232\231\231\231\231\231\"@"
      }
    }
  }
}
node {
  name: "StridedSlice/begin"
  op: "Const"
  attr {
    key: "dtype"
    value {
      type: DT_INT32
    }
  }
  attr {
    key: "value"
    value {
      tensor {
        dtype: DT_INT32
        tensor_shape {
          dim {
            size: 3
          }
        }
        tensor_content: "\002\000\000\000\000\000\000\000\000\000\000\000"
      }
    }
  }
}
node {
  name: "StridedSlice/end"
  op: "Const"
  attr {
    key: "dtype"
    value {
      type: DT_INT32
    }
  }
  attr {
    key: "value"
    value {
      tensor {
        dtype: DT_INT32
        tensor_shape {
          dim {
            size: 3
          }
        }
        tensor_content: "\003\000\000\000\003\000\000\000\003\000\000\000"
      }
    }
  }
}
node {
  name: "StridedSlice/strides"
  op: "Const"
  attr {
    key: "dtype"
    value {
      type: DT_INT32
    }
  }
  attr {
    key: "value"
    value {
      tensor {
        dtype: DT_INT32
        tensor_shape {
          dim {
            size: 3
          }
        }
        tensor_content: "\001\000\000\000\001\000\000\000\001\000\000\000"
      }
    }
  }
}
node {
  name: "StridedSlice"
  op: "StridedSlice"
  input: "StridedSlice/input"
  input: "StridedSlice/begin"
  input: "StridedSlice/end"
  input: "StridedSlice/strides"
  attr {
    key: "Index"
    value {
      type: DT_INT32
    }
  }
  attr {
    key: "T"
    value {
      type: DT_DOUBLE
    }
  }
  attr {
    key: "begin_mask"
    value {
      i: 0
    }
  }
  attr {
    key: "ellipsis_mask"
    value {
      i: 0
    }
  }
  attr {
    key: "end_mask"
    value {
      i: 0
    }
  }
  attr {
    key: "new_axis_mask"
    value {
      i: 0
    }
  }
  attr {
    key: "shrink_axis_mask"
    value {
      i: 0
    }
  }
}
node {
  name: "Const"
  op: "Const"
  attr {
    key: "dtype"
    value {
      type: DT_INT32
    }
  }
  attr {
    key: "value"
    value {
      tensor {
        dtype: DT_INT32
        tensor_shape {
          dim {
            size: 3
          }
        }
        tensor_content: "\000\000\000\000\001\000\000\000\002\000\000\000"
      }
    }
  }
}
node {
  name: "Sum"
  op: "Sum"
  input: "StridedSlice"
  input: "Const"
  attr {
    key: "T"
    value {
      type: DT_DOUBLE
    }
  }
  attr {
    key: "Tidx"
    value {
      type: DT_INT32
    }
  }
  attr {
    key: "keep_dims"
    value {
      b: false
    }
  }
}
versions {
  producer: 24
}
